unsigned char model_tflite[] = {
  0x1c, 0x00, 0x00, 0x00, 0x54, 0x46, 0x4c, 0x33, 0x14, 0x00, 0x20, 0x00,
  0x1c, 0x00, 0x18, 0x00, 0x14, 0x00, 0x10, 0x00, 0x0c, 0x00, 0x00, 0x00,
  0x08, 0x00, 0x04, 0x00, 0x14, 0x00, 0x00, 0x00, 0x1c, 0x00, 0x00, 0x00,
  0x84, 0x00, 0x00, 0x00, 0xdc, 0x00, 0x00, 0x00, 0xdc, 0x12, 0x00, 0x00,
  0xec, 0x12, 0x00, 0x00, 0x20, 0x17, 0x00, 0x00, 0x03, 0x00, 0x00, 0x00,
  0x01, 0x00, 0x00, 0x00, 0x04, 0x00, 0x00, 0x00, 0xda, 0xec, 0xff, 0xff,
  0x0c, 0x00, 0x00, 0x00, 0x1c, 0x00, 0x00, 0x00, 0x38, 0x00, 0x00, 0x00,
  0x0f, 0x00, 0x00, 0x00, 0x73, 0x65, 0x72, 0x76, 0x69, 0x6e, 0x67, 0x5f,
  0x64, 0x65, 0x66, 0x61, 0x75, 0x6c, 0x74, 0x00, 0x01, 0x00, 0x00, 0x00,
  0x04, 0x00, 0x00, 0x00, 0x98, 0xff, 0xff, 0xff, 0x07, 0x00, 0x00, 0x00,
  0x04, 0x00, 0x00, 0x00, 0x07, 0x00, 0x00, 0x00, 0x64, 0x65, 0x6e, 0x73,
  0x65, 0x5f, 0x31, 0x00, 0x01, 0x00, 0x00, 0x00, 0x04, 0x00, 0x00, 0x00,
  0xae, 0xed, 0xff, 0xff, 0x04, 0x00, 0x00, 0x00, 0x0b, 0x00, 0x00, 0x00,
  0x64, 0x65, 0x6e, 0x73, 0x65, 0x5f, 0x69, 0x6e, 0x70, 0x75, 0x74, 0x00,
  0x02, 0x00, 0x00, 0x00, 0x34, 0x00, 0x00, 0x00, 0x04, 0x00, 0x00, 0x00,
  0xdc, 0xff, 0xff, 0xff, 0x0a, 0x00, 0x00, 0x00, 0x04, 0x00, 0x00, 0x00,
  0x13, 0x00, 0x00, 0x00, 0x43, 0x4f, 0x4e, 0x56, 0x45, 0x52, 0x53, 0x49,
  0x4f, 0x4e, 0x5f, 0x4d, 0x45, 0x54, 0x41, 0x44, 0x41, 0x54, 0x41, 0x00,
  0x08, 0x00, 0x0c, 0x00, 0x08, 0x00, 0x04, 0x00, 0x08, 0x00, 0x00, 0x00,
  0x09, 0x00, 0x00, 0x00, 0x04, 0x00, 0x00, 0x00, 0x13, 0x00, 0x00, 0x00,
  0x6d, 0x69, 0x6e, 0x5f, 0x72, 0x75, 0x6e, 0x74, 0x69, 0x6d, 0x65, 0x5f,
  0x76, 0x65, 0x72, 0x73, 0x69, 0x6f, 0x6e, 0x00, 0x0b, 0x00, 0x00, 0x00,
  0xfc, 0x11, 0x00, 0x00, 0xf4, 0x11, 0x00, 0x00, 0xd8, 0x11, 0x00, 0x00,
  0xc0, 0x10, 0x00, 0x00, 0xb0, 0x03, 0x00, 0x00, 0xa0, 0x00, 0x00, 0x00,
  0x98, 0x00, 0x00, 0x00, 0x90, 0x00, 0x00, 0x00, 0x88, 0x00, 0x00, 0x00,
  0x68, 0x00, 0x00, 0x00, 0x04, 0x00, 0x00, 0x00, 0x52, 0xee, 0xff, 0xff,
  0x04, 0x00, 0x00, 0x00, 0x54, 0x00, 0x00, 0x00, 0x0c, 0x00, 0x00, 0x00,
  0x08, 0x00, 0x0e, 0x00, 0x08, 0x00, 0x04, 0x00, 0x08, 0x00, 0x00, 0x00,
  0x10, 0x00, 0x00, 0x00, 0x24, 0x00, 0x00, 0x00, 0x00, 0x00, 0x06, 0x00,
  0x08, 0x00, 0x04, 0x00, 0x06, 0x00, 0x00, 0x00, 0x04, 0x00, 0x00, 0x00,
  0x00, 0x00, 0x00, 0x00, 0x00, 0x00, 0x0a, 0x00, 0x10, 0x00, 0x0c, 0x00,
  0x08, 0x00, 0x04, 0x00, 0x0a, 0x00, 0x00, 0x00, 0x01, 0x00, 0x00, 0x00,
  0x02, 0x00, 0x00, 0x00, 0x04, 0x00, 0x00, 0x00, 0x06, 0x00, 0x00, 0x00,
  0x32, 0x2e, 0x31, 0x31, 0x2e, 0x30, 0x00, 0x00, 0xb2, 0xee, 0xff, 0xff,
  0x04, 0x00, 0x00, 0x00, 0x10, 0x00, 0x00, 0x00, 0x31, 0x2e, 0x31, 0x34,
  0x2e, 0x30, 0x00, 0x00, 0x00, 0x00, 0x00, 0x00, 0x00, 0x00, 0x00, 0x00,
  0x94, 0xea, 0xff, 0xff, 0x98, 0xea, 0xff, 0xff, 0x9c, 0xea, 0xff, 0xff,
  0xda, 0xee, 0xff, 0xff, 0x04, 0x00, 0x00, 0x00, 0x00, 0x03, 0x00, 0x00,
  0xf0, 0xb1, 0xd9, 0xbd, 0x83, 0x7c, 0x2e, 0xbe, 0x53, 0xdd, 0x3b, 0xbe,
  0x7d, 0xe2, 0x6f, 0x3d, 0x31, 0xaa, 0x36, 0x3e, 0xf7, 0xe5, 0x64, 0xbe,
  0xa2, 0xdf, 0xa4, 0xbe, 0x28, 0x2a, 0x53, 0x3e, 0xc4, 0x37, 0x9f, 0xbe,
  0xac, 0xd6, 0xe8, 0xbd, 0x7b, 0x71, 0xf7, 0x3d, 0x5d, 0x5e, 0x83, 0x3e,
  0x8e, 0xa0, 0xab, 0xbe, 0xbf, 0x7a, 0xa1, 0xbe, 0x99, 0xbe, 0x85, 0xbe,
  0x2a, 0xaf, 0xdf, 0xbc, 0x97, 0xbf, 0xa2, 0xbc, 0xc2, 0xdc, 0x1c, 0xbe,
  0x50, 0xe2, 0x14, 0xbe, 0x47, 0x5b, 0x38, 0xbe, 0x40, 0xe1, 0xf8, 0x3d,
  0x11, 0x1e, 0xe8, 0x3d, 0xf7, 0x81, 0x15, 0x3e, 0x91, 0xe1, 0x91, 0x3e,
  0x31, 0x47, 0xd1, 0xbb, 0x25, 0xa1, 0x95, 0xbe, 0x1b, 0x3b, 0x26, 0x3d,
  0x5e, 0x4b, 0x99, 0xbd, 0xdd, 0x0c, 0x0a, 0x3b, 0x2a, 0x3f, 0x40, 0x3e,
  0x04, 0x55, 0x08, 0x3e, 0x69, 0xb4, 0x65, 0x3e, 0xb5, 0x92, 0x3b, 0x3c,
  0x62, 0xa4, 0xea, 0x3d, 0x30, 0xe9, 0x61, 0xbe, 0xaa, 0x22, 0x0e, 0xbe,
  0xc0, 0x61, 0x2e, 0xbe, 0xeb, 0xf2, 0x6d, 0xbe, 0x48, 0x4e, 0xe8, 0xbd,
  0xf6, 0x01, 0x70, 0x3e, 0xdb, 0x1f, 0x0e, 0x3e, 0xa9, 0x4b, 0xe2, 0x3d,
  0xc1, 0x22, 0x20, 0x3b, 0x2a, 0x8f, 0x74, 0xbc, 0x56, 0x27, 0xe3, 0x3d,
  0x28, 0xc6, 0x4e, 0xbe, 0x5a, 0x3a, 0x05, 0x3e, 0xb9, 0x94, 0x45, 0xbe,
  0x14, 0x71, 0x0b, 0xbe, 0x92, 0xe8, 0x1a, 0x3d, 0x81, 0x72, 0xc8, 0x3b,
  0x0c, 0x81, 0xc3, 0x3d, 0xaf, 0x8d, 0x10, 0x3e, 0x82, 0xd9, 0x38, 0xbe,
  0xbd, 0xa2, 0x2b, 0xbe, 0x7b, 0x23, 0x5c, 0x3e, 0x50, 0x12, 0xa6, 0x3e,
  0xa6, 0xfc, 0xac, 0x3e, 0x6e, 0x67, 0x34, 0xbe, 0x10, 0xba, 0x4e, 0x3e,
  0xdc, 0xbe, 0x53, 0xbe, 0xe5, 0xcc, 0xa5, 0x3d, 0x41, 0x39, 0x74, 0xbe,
  0x68, 0x9c, 0x43, 0xbe, 0xea, 0xb9, 0x93, 0xbe, 0xb1, 0xf0, 0x57, 0xbe,
  0x4a, 0x31, 0x0c, 0xbe, 0x92, 0xf0, 0x06, 0x3d, 0x21, 0x0e, 0xaa, 0xbe,
  0x8e, 0x55, 0xf2, 0x3a, 0xb9, 0x78, 0x6f, 0xbe, 0x5f, 0x1a, 0x8b, 0x3e,
  0x6b, 0x7f, 0x37, 0x3d, 0x8e, 0xa7, 0x29, 0xbe, 0x98, 0x89, 0x6f, 0x3d,
  0x28, 0xda, 0xbe, 0x3c, 0x3b, 0x29, 0x09, 0x3e, 0x0b, 0xd7, 0x44, 0x3e,
  0x65, 0x14, 0x72, 0x3e, 0x55, 0x47, 0x02, 0x3d, 0xc0, 0x0e, 0x06, 0x3e,
  0xe7, 0x66, 0xff, 0x3d, 0x77, 0x9f, 0xd3, 0xbd, 0xe0, 0x1b, 0xb8, 0x3d,
  0xa7, 0xcd, 0x2f, 0xbe, 0x58, 0x4f, 0x88, 0x3c, 0xac, 0xa1, 0x0f, 0xbe,
  0x51, 0xd4, 0x31, 0x3e, 0x7e, 0x8d, 0xeb, 0xbd, 0xe1, 0x5f, 0xf2, 0x3d,
  0x6e, 0x1c, 0xf6, 0x3d, 0xe2, 0x16, 0x8b, 0x3e, 0x03, 0x71, 0x39, 0xbe,
  0x4e, 0x03, 0x17, 0x3e, 0x6c, 0xfc, 0xed, 0xbc, 0x17, 0x26, 0xc0, 0xbd,
  0x93, 0x86, 0x1e, 0x3e, 0x51, 0x06, 0x4a, 0x3e, 0xe2, 0xe6, 0xb6, 0x3d,
  0x14, 0x1d, 0x03, 0xbe, 0x40, 0x0f, 0x2e, 0xbe, 0xed, 0x47, 0x02, 0x3e,
  0x97, 0xe3, 0x84, 0xbe, 0x75, 0xa8, 0x20, 0x3e, 0xb0, 0x6c, 0xa0, 0xbd,
  0x10, 0x85, 0x7e, 0x3e, 0x5a, 0x9b, 0xe7, 0xbd, 0xde, 0x1c, 0xf8, 0x3d,
  0x3e, 0x29, 0x66, 0x3e, 0xdf, 0xf6, 0x9c, 0xbd, 0xa3, 0xc9, 0xd9, 0xbd,
  0xef, 0x21, 0x75, 0x3c, 0x8c, 0x1f, 0x86, 0xbe, 0x3b, 0x76, 0x7c, 0x3e,
  0x4e, 0xe0, 0xbb, 0x3d, 0x73, 0xce, 0x05, 0xbe, 0x7c, 0xe3, 0x0b, 0xbe,
  0xd5, 0x56, 0xd8, 0xbd, 0xc5, 0x0d, 0x35, 0xbe, 0x1e, 0xd0, 0xa1, 0x3e,
  0x4b, 0x28, 0x90, 0x3e, 0xa2, 0xb6, 0x95, 0xbe, 0xbe, 0x13, 0x99, 0x3d,
  0x34, 0x19, 0xeb, 0x3d, 0x3a, 0xef, 0xea, 0x3c, 0xd1, 0x34, 0xfb, 0x3b,
  0x2c, 0x75, 0x83, 0x3e, 0x56, 0x78, 0x87, 0xbd, 0x20, 0x6b, 0x38, 0xbc,
  0x9a, 0xc9, 0x20, 0x3d, 0xcc, 0x84, 0x98, 0x3d, 0x87, 0x2a, 0x3f, 0x3e,
  0x65, 0x06, 0x20, 0x3e, 0xec, 0x8b, 0xa8, 0x3e, 0x2a, 0x1c, 0x9a, 0xbd,
  0xf6, 0x9e, 0x7e, 0xbe, 0xf2, 0xcd, 0x71, 0x3e, 0x60, 0xba, 0xa5, 0xbe,
  0xf8, 0x11, 0x8b, 0x3e, 0xc8, 0xee, 0x50, 0xbe, 0xa1, 0x2f, 0x8d, 0xbc,
  0x7a, 0x97, 0x15, 0x3e, 0x5b, 0x0f, 0x10, 0x3e, 0xd4, 0xbc, 0x9b, 0xbe,
  0x85, 0xdf, 0xac, 0x3d, 0x21, 0x1d, 0xea, 0x3d, 0xc8, 0x18, 0x1a, 0x3e,
  0x77, 0xad, 0x07, 0xbe, 0xf6, 0x95, 0xcd, 0xbc, 0x54, 0xa8, 0xa8, 0x3e,
  0xe5, 0x47, 0x5a, 0xbe, 0x91, 0x26, 0x67, 0xbd, 0x36, 0x76, 0x88, 0xbe,
  0x11, 0x4e, 0x35, 0xbe, 0x96, 0x6c, 0xaa, 0x3d, 0xf4, 0x3f, 0x3e, 0x3d,
  0x32, 0x1c, 0x0e, 0x3d, 0x0e, 0xba, 0x99, 0xbe, 0x20, 0x23, 0x1e, 0x3e,
  0x12, 0xcb, 0xb0, 0x3d, 0x96, 0x6f, 0x65, 0xbe, 0x06, 0x74, 0x34, 0xbe,
  0x81, 0x4f, 0x5e, 0xbe, 0x2f, 0x1e, 0x90, 0x3e, 0x2d, 0x66, 0xde, 0xbd,
  0xa8, 0x91, 0x44, 0x3c, 0xd9, 0x6c, 0x1b, 0xbe, 0xe8, 0x40, 0x17, 0xbe,
  0x59, 0x18, 0x98, 0xbe, 0x87, 0x4a, 0x1f, 0xbe, 0x39, 0x29, 0x68, 0xbd,
  0x12, 0x38, 0x41, 0xbe, 0x90, 0x11, 0xfb, 0xbd, 0xfd, 0x5e, 0x91, 0x3e,
  0xee, 0x8c, 0x87, 0x3e, 0xaf, 0xce, 0xac, 0xbe, 0x37, 0x1a, 0x93, 0xbd,
  0x9e, 0x67, 0xd8, 0xbd, 0x25, 0x3b, 0x30, 0x3d, 0x80, 0x4d, 0x3c, 0x3e,
  0x47, 0x2f, 0x09, 0xbe, 0x24, 0xa4, 0x00, 0xbe, 0x45, 0xa6, 0x47, 0xbc,
  0x8b, 0x47, 0xdd, 0xbd, 0x62, 0xcb, 0x8a, 0x3d, 0x50, 0xa0, 0x93, 0xbe,
  0xd2, 0xe2, 0x61, 0x3d, 0x89, 0x0c, 0x81, 0x3e, 0x12, 0x88, 0x8e, 0x3e,
  0x37, 0xa5, 0x64, 0xbe, 0x15, 0xca, 0x58, 0x3e, 0x5c, 0xf9, 0x81, 0x3e,
  0xe6, 0xf1, 0xff, 0xff, 0x04, 0x00, 0x00, 0x00, 0x00, 0x0d, 0x00, 0x00,
  0xc5, 0x61, 0x2e, 0x3e, 0x08, 0x8d, 0x83, 0xbe, 0xbf, 0x0b, 0x84, 0xbc,
  0x67, 0xcd, 0x73, 0xbe, 0x53, 0xc5, 0x5a, 0x3e, 0x24, 0x93, 0x92, 0x3e,
  0x3c, 0x8a, 0xff, 0xbd, 0x3e, 0x25, 0x72, 0x3d, 0xdf, 0x12, 0x6b, 0xbd,
  0x89, 0x46, 0x88, 0xbe, 0xd5, 0xa3, 0xe8, 0x3c, 0x8e, 0xa9, 0x1d, 0x3e,
  0xef, 0x6a, 0x9b, 0x3d, 0x4a, 0x57, 0x66, 0x3e, 0xa4, 0x41, 0x18, 0x3d,
  0x7b, 0x1b, 0x1d, 0x3d, 0x89, 0x42, 0x15, 0xbe, 0xaf, 0xcd, 0x96, 0x3e,
  0xff, 0xe7, 0x4e, 0xbe, 0x3f, 0x26, 0x17, 0x3e, 0x1d, 0xcf, 0xae, 0xbd,
  0xbf, 0x16, 0x34, 0xbe, 0x86, 0x89, 0x44, 0xbb, 0xb0, 0x17, 0x0a, 0xbe,
  0x25, 0x62, 0x17, 0xbe, 0x89, 0xe9, 0xb3, 0x3d, 0x0c, 0xb8, 0x35, 0xbe,
  0x4f, 0x9c, 0x9b, 0xbe, 0x74, 0xae, 0x8b, 0x3e, 0x6c, 0x72, 0x8a, 0xbd,
  0x66, 0x8d, 0x2e, 0x3e, 0x8c, 0xb0, 0x21, 0xbc, 0x9a, 0xd8, 0x0b, 0x3e,
  0xa1, 0x68, 0x9d, 0x3d, 0x1d, 0x89, 0x8c, 0x3d, 0xcd, 0x2b, 0x62, 0x3e,
  0x15, 0x50, 0x2e, 0x3c, 0x39, 0x5c, 0x11, 0xbe, 0xcf, 0xc8, 0xf6, 0x3d,
  0xa2, 0x27, 0x0e, 0xbe, 0x16, 0xa8, 0x3d, 0x3d, 0x08, 0xef, 0xc7, 0x3c,
  0xa8, 0xb9, 0x4a, 0xbe, 0x51, 0x60, 0xb3, 0x3d, 0x58, 0x1f, 0x2c, 0x3e,
  0xfc, 0x7a, 0xbe, 0x3d, 0xbf, 0xd7, 0x45, 0x3d, 0xab, 0x42, 0xa5, 0x3c,
  0x63, 0x5c, 0xa5, 0xbd, 0x19, 0xaa, 0x3c, 0x3e, 0x8c, 0xfa, 0x7e, 0x3d,
  0x92, 0x6b, 0x1f, 0x3e, 0xb5, 0x25, 0x3b, 0xbe, 0x6c, 0x1d, 0x8f, 0xbe,
  0x40, 0xbf, 0x16, 0x3c, 0x4b, 0x72, 0x8c, 0xbc, 0x1e, 0x01, 0x81, 0x3e,
  0x9d, 0x48, 0x8a, 0x3e, 0xcf, 0x9e, 0x05, 0xbd, 0xf9, 0x37, 0x25, 0x3e,
  0xd7, 0x49, 0x5b, 0xbe, 0xa6, 0xdf, 0x6f, 0xbe, 0xee, 0xec, 0x3c, 0xbe,
  0x87, 0x03, 0x98, 0xbe, 0x3c, 0xd1, 0x52, 0x3e, 0x8f, 0x17, 0x6b, 0x3e,
  0xaf, 0xf9, 0x35, 0xbd, 0xc6, 0x7b, 0x6e, 0xbe, 0x14, 0xa8, 0x36, 0x3e,
  0x6d, 0xce, 0x12, 0x3e, 0x8e, 0x83, 0x28, 0x3d, 0x65, 0x79, 0x14, 0x3e,
  0xb1, 0x31, 0x45, 0x3e, 0xd2, 0xbb, 0x4e, 0x3e, 0xe8, 0xbe, 0x36, 0x3d,
  0x45, 0x32, 0x98, 0x3d, 0xef, 0x79, 0xad, 0xbd, 0x5e, 0x93, 0xd6, 0xbd,
  0x7a, 0x3f, 0x67, 0xbe, 0xf7, 0x75, 0x46, 0xbe, 0x09, 0x5d, 0xaa, 0xbd,
  0xf5, 0xc5, 0x33, 0x3e, 0x45, 0x71, 0x18, 0xbe, 0x8a, 0x17, 0x09, 0xbe,
  0x73, 0x58, 0x83, 0xbc, 0x04, 0x79, 0xff, 0x3c, 0x62, 0xd0, 0x82, 0xbd,
  0x3b, 0xd2, 0x98, 0x3c, 0x08, 0x76, 0x6a, 0xbe, 0x01, 0xa9, 0x5f, 0xbe,
  0x57, 0xf5, 0x82, 0x3d, 0xbc, 0xaf, 0x22, 0x3e, 0x74, 0x1a, 0x36, 0x3e,
  0xfa, 0x9a, 0x95, 0xbe, 0x75, 0x38, 0x35, 0xbe, 0x6b, 0xad, 0x8f, 0xbe,
  0x0e, 0x12, 0x37, 0xbe, 0xda, 0x5b, 0x8e, 0xbd, 0xff, 0x07, 0xea, 0x3d,
  0xfc, 0xfb, 0x42, 0x3e, 0x4c, 0xa3, 0x0c, 0x3e, 0xd1, 0xe1, 0x7d, 0xbd,
  0xe5, 0xfe, 0x16, 0x3e, 0x6f, 0x6b, 0x38, 0xbe, 0x1b, 0x69, 0x2d, 0x3c,
  0x6e, 0x59, 0x66, 0x3d, 0xda, 0x2a, 0x65, 0x3c, 0xb2, 0x2a, 0x28, 0x3e,
  0x57, 0x94, 0x85, 0xbd, 0xaf, 0xec, 0x8b, 0x3d, 0xec, 0x03, 0x4e, 0x3e,
  0x01, 0x6e, 0x62, 0xbe, 0xc8, 0x43, 0x4f, 0x3e, 0x5c, 0x17, 0x29, 0x3c,
  0x7d, 0xf1, 0x86, 0x3d, 0x79, 0x2d, 0x27, 0x3e, 0xb3, 0x1e, 0x32, 0xbe,
  0x43, 0x17, 0x0b, 0x3e, 0x73, 0xc0, 0x80, 0xbe, 0xe1, 0xd8, 0x69, 0xbd,
  0x9d, 0x65, 0xd4, 0xbd, 0xf5, 0xc9, 0x4b, 0xbe, 0xb4, 0xc1, 0x33, 0x3d,
  0x04, 0x14, 0x5c, 0x3e, 0xec, 0xe5, 0x91, 0x3e, 0x77, 0xbc, 0x65, 0xbe,
  0x00, 0x61, 0x2d, 0x3e, 0x1e, 0xf6, 0x91, 0xbe, 0x47, 0xbc, 0xc0, 0x3d,
  0xf8, 0x26, 0xa0, 0xbd, 0x54, 0xc2, 0x90, 0xbd, 0x85, 0xee, 0x96, 0xbe,
  0xdf, 0x73, 0x85, 0x3e, 0x8f, 0x85, 0xbf, 0x3d, 0x52, 0x81, 0x44, 0x3d,
  0x89, 0x28, 0x61, 0x3e, 0xa6, 0x34, 0x45, 0xbe, 0xf5, 0x49, 0x1b, 0x3e,
  0xf8, 0x1b, 0x9e, 0xbd, 0x6e, 0x18, 0x74, 0xbe, 0xe6, 0x65, 0xc8, 0x3d,
  0x33, 0xaa, 0xf6, 0x3d, 0xd7, 0x83, 0x1f, 0x3e, 0x05, 0x08, 0x60, 0x3e,
  0x2d, 0x25, 0x49, 0x3e, 0x54, 0x78, 0x12, 0x3e, 0xbf, 0xb4, 0x4f, 0x3e,
  0x1b, 0xfb, 0x1f, 0xbe, 0x71, 0x9b, 0x56, 0x3e, 0xe8, 0xb5, 0x07, 0x3d,
  0x77, 0x9f, 0xdd, 0x3d, 0xf4, 0xcf, 0x96, 0xbb, 0xc9, 0x33, 0x7d, 0x3e,
  0x9c, 0x02, 0x5a, 0x3e, 0x4a, 0xa1, 0x57, 0xbd, 0x37, 0xa4, 0x3b, 0xbe,
  0x98, 0x0c, 0x5b, 0x3e, 0xa9, 0x4a, 0xb8, 0x3c, 0xc0, 0x0d, 0x98, 0xbe,
  0xe9, 0xff, 0x96, 0xbd, 0x73, 0x6d, 0x0d, 0x3e, 0xf9, 0x22, 0x84, 0xbe,
  0x53, 0x24, 0xbb, 0xbd, 0xea, 0xe1, 0x0e, 0x3d, 0xc1, 0x55, 0x16, 0x3e,
  0xee, 0xda, 0x2a, 0xbd, 0x0d, 0x6e, 0x9a, 0xbe, 0xa2, 0x83, 0x96, 0x3e,
  0x90, 0xd0, 0x60, 0xbe, 0x1f, 0x88, 0x31, 0x3e, 0xcb, 0xb6, 0x74, 0x3e,
  0xd8, 0x84, 0x24, 0x3e, 0x36, 0xe5, 0x9b, 0x3e, 0xe5, 0x0f, 0xb1, 0xbc,
  0xe3, 0x4d, 0x3a, 0xbd, 0xdb, 0xc3, 0x30, 0x3d, 0x31, 0x21, 0xf4, 0x3d,
  0x1c, 0x65, 0x3a, 0xbe, 0x44, 0xfc, 0x9d, 0xbe, 0x83, 0x77, 0x24, 0x3e,
  0xe9, 0xb0, 0x45, 0xbe, 0x63, 0xa4, 0x34, 0x3e, 0x37, 0x98, 0x00, 0xbe,
  0xf8, 0xda, 0x08, 0x3e, 0x54, 0xe7, 0x4c, 0x3d, 0x21, 0xaf, 0x89, 0x3c,
  0x97, 0xc3, 0x91, 0xbe, 0x9f, 0x4b, 0xf6, 0xbd, 0x24, 0x3a, 0x63, 0xbd,
  0x78, 0x70, 0x44, 0xbe, 0x72, 0xab, 0x34, 0xbe, 0x63, 0xcd, 0x1c, 0xbe,
  0xac, 0xe6, 0x54, 0xbe, 0x29, 0xf2, 0x5a, 0x3e, 0x41, 0x20, 0x90, 0x3d,
  0xa7, 0x46, 0xb7, 0xbd, 0xda, 0xa6, 0x4d, 0x3d, 0x97, 0x07, 0x99, 0xbe,
  0x74, 0xf6, 0x2f, 0x3e, 0xd2, 0xe0, 0x8b, 0xbe, 0x04, 0x3e, 0x5d, 0xbe,
  0xbe, 0x8f, 0xd9, 0xbd, 0x56, 0x63, 0x3d, 0xbd, 0xca, 0x53, 0x1a, 0x3e,
  0x47, 0x5d, 0x65, 0x3e, 0x4c, 0x78, 0x39, 0x3e, 0x20, 0x33, 0xee, 0xbd,
  0xb1, 0x5f, 0x0a, 0xbc, 0x7d, 0x3d, 0xeb, 0x3d, 0x02, 0x3e, 0xe0, 0x3c,
  0x86, 0x6f, 0x91, 0xbe, 0x68, 0x13, 0x43, 0xbe, 0x6d, 0xb8, 0x4a, 0x3e,
  0xe4, 0x58, 0x88, 0xbe, 0xcf, 0x6f, 0x3f, 0xbe, 0x29, 0x6c, 0xd7, 0x3d,
  0x94, 0xde, 0x9a, 0xbe, 0x7b, 0xdd, 0x78, 0x3e, 0x6e, 0xa7, 0x9d, 0xbe,
  0x38, 0x80, 0xa3, 0x3d, 0xde, 0xa6, 0x62, 0x3e, 0xa4, 0xe2, 0x99, 0xbe,
  0x9b, 0x9f, 0x3f, 0x3e, 0xdc, 0xde, 0xb0, 0xbc, 0x6a, 0x98, 0xca, 0x3b,
  0x28, 0x8f, 0x77, 0x3e, 0xfb, 0x21, 0xd3, 0xbd, 0x84, 0x45, 0xba, 0x3d,
  0x09, 0xe5, 0x1f, 0xbe, 0xfe, 0x9f, 0x12, 0x3e, 0xbd, 0xcd, 0x8d, 0xbe,
  0xd7, 0xf8, 0x17, 0xbe, 0xce, 0xba, 0x44, 0xbe, 0xd7, 0x06, 0x93, 0xbd,
  0xae, 0xa8, 0x5e, 0x3e, 0xe4, 0xe1, 0x88, 0xbc, 0x0c, 0x7d, 0x61, 0x3e,
  0x0e, 0x1c, 0x77, 0xbc, 0x94, 0x26, 0x93, 0x3b, 0x18, 0xcb, 0xf5, 0xbd,
  0x1f, 0xb0, 0x8a, 0x3e, 0x12, 0xfb, 0x99, 0xbe, 0x8d, 0xcc, 0xf9, 0x3c,
  0x0f, 0xfd, 0x22, 0xbe, 0x0b, 0x09, 0xe1, 0x3c, 0x56, 0x1b, 0x35, 0x3d,
  0x0d, 0x4a, 0x8c, 0x3e, 0x95, 0x72, 0x6f, 0x3e, 0x17, 0x67, 0x9c, 0x3e,
  0xad, 0x47, 0xcc, 0xbc, 0xdb, 0xae, 0x7b, 0xbd, 0x4e, 0xba, 0x04, 0xbe,
  0x22, 0xb1, 0xe0, 0x3d, 0x14, 0x47, 0x8e, 0xbe, 0x8e, 0x0a, 0x1d, 0x3d,
  0x32, 0x17, 0x9a, 0xbe, 0xc4, 0xc8, 0x6f, 0xbe, 0xf8, 0x2c, 0xd7, 0xbd,
  0x44, 0x92, 0x97, 0x3c, 0xc2, 0x88, 0x4a, 0xbd, 0xb4, 0xd6, 0x97, 0x3e,
  0xe3, 0x9c, 0x94, 0xbe, 0x45, 0xf7, 0xcb, 0xbd, 0x43, 0x95, 0x97, 0xbe,
  0x51, 0xc2, 0x98, 0x3e, 0x0d, 0xb7, 0xae, 0x3d, 0x17, 0x83, 0x88, 0x3d,
  0x88, 0x52, 0xec, 0x3d, 0xe1, 0x4c, 0xf0, 0xbd, 0xc4, 0x4c, 0x4b, 0x3e,
  0xed, 0xf5, 0x00, 0x3e, 0x04, 0x66, 0x98, 0xbc, 0xb3, 0xbc, 0x05, 0xbd,
  0x2b, 0x4f, 0xf3, 0x3d, 0x58, 0x60, 0xe8, 0x3d, 0x2f, 0x9b, 0x82, 0x3e,
  0x4b, 0xbc, 0x84, 0xbd, 0xc2, 0x38, 0xdf, 0x3d, 0xb4, 0xcc, 0x1c, 0xbe,
  0x58, 0x86, 0x7a, 0xbe, 0x00, 0xb2, 0x67, 0xbe, 0x89, 0x67, 0x03, 0x3e,
  0x22, 0x8d, 0x7a, 0xbe, 0xf0, 0x19, 0xf7, 0x3d, 0x75, 0xef, 0xd7, 0x3d,
  0xe9, 0x6a, 0x0a, 0x3e, 0xb6, 0xbb, 0x0e, 0xbe, 0x3a, 0x8f, 0x4d, 0xbd,
  0x83, 0xd1, 0xa3, 0x3d, 0x4e, 0x77, 0x9d, 0x3d, 0x7f, 0x11, 0x19, 0xbe,
  0x83, 0x9e, 0xdb, 0xbd, 0x23, 0xd1, 0x33, 0xbd, 0xbb, 0x88, 0x6b, 0xbe,
  0x03, 0xaf, 0x4b, 0xbe, 0x52, 0xf0, 0x7e, 0xbe, 0x2a, 0x3f, 0xd5, 0xbc,
  0x81, 0xa0, 0xf8, 0xbd, 0x58, 0xd9, 0x21, 0x3c, 0xc4, 0xe2, 0xca, 0x3d,
  0xce, 0xd5, 0x55, 0xbb, 0xed, 0x85, 0x20, 0xbe, 0x2b, 0x4f, 0x5d, 0xbd,
  0x7c, 0x51, 0x83, 0x3e, 0x77, 0x2c, 0x19, 0x3e, 0xf5, 0xce, 0x37, 0xbe,
  0x79, 0x98, 0x7a, 0xbe, 0x94, 0x4b, 0x37, 0xbe, 0xf5, 0x15, 0x93, 0x3e,
  0xfd, 0x04, 0x25, 0xbe, 0xa6, 0xff, 0xf1, 0xbc, 0x1f, 0xcb, 0x91, 0xbe,
  0xf1, 0x37, 0xa9, 0x3d, 0x00, 0x6b, 0xba, 0xbd, 0x87, 0x62, 0x8f, 0xbe,
  0xd5, 0x69, 0x0f, 0xbe, 0x82, 0xa2, 0x6e, 0x3e, 0x9a, 0xa8, 0x91, 0xbe,
  0x65, 0xda, 0x53, 0x3e, 0x7a, 0xd5, 0xd8, 0xbd, 0xb7, 0xf1, 0x4c, 0x3d,
  0x5f, 0x26, 0x08, 0x3e, 0x86, 0x2e, 0x31, 0x3e, 0x7a, 0x5d, 0x7d, 0x3d,
  0x36, 0xad, 0xed, 0x3c, 0xfb, 0x54, 0x25, 0xbd, 0x27, 0xd4, 0x72, 0xbe,
  0x20, 0xd2, 0x41, 0xbd, 0x72, 0xab, 0x61, 0x3e, 0x2f, 0x57, 0x8e, 0xbe,
  0xdc, 0x60, 0x34, 0xbe, 0x6d, 0x8a, 0x09, 0xbd, 0xed, 0xba, 0x0f, 0x3e,
  0x6a, 0xdd, 0x31, 0xbd, 0x13, 0xd3, 0x43, 0xbe, 0x4e, 0x0d, 0xd0, 0x3d,
  0x97, 0xef, 0xf2, 0xbd, 0x28, 0x3f, 0x05, 0x3e, 0x4b, 0x10, 0x46, 0x3e,
  0x46, 0x3f, 0x0b, 0x3e, 0xb2, 0x98, 0x04, 0xbe, 0x3f, 0xb8, 0x57, 0x3d,
  0x0e, 0xab, 0x55, 0x3e, 0x4d, 0xd4, 0x71, 0xbe, 0xb2, 0x22, 0x5d, 0x3e,
  0xb1, 0x98, 0xec, 0x3d, 0x48, 0x6b, 0x8d, 0xbe, 0xb2, 0xc9, 0x57, 0x3e,
  0x48, 0x34, 0x94, 0xbe, 0xae, 0x50, 0x62, 0x3e, 0xad, 0x9e, 0x44, 0x3e,
  0xc4, 0x79, 0xb5, 0xbd, 0x76, 0xbb, 0x8d, 0x3e, 0xf2, 0x58, 0x60, 0xbe,
  0xc3, 0x82, 0x56, 0x3c, 0xa0, 0x7d, 0x3a, 0x3e, 0xac, 0xe6, 0x32, 0xbd,
  0x55, 0x96, 0x43, 0xbd, 0x8f, 0xe3, 0x8b, 0x3d, 0x73, 0x9d, 0x5c, 0xbe,
  0x4f, 0x7f, 0xbc, 0xbd, 0x29, 0x6d, 0x0a, 0x3e, 0x55, 0x70, 0x0c, 0x3d,
  0xf8, 0x0d, 0x05, 0x3d, 0x73, 0xfe, 0x43, 0xbe, 0x52, 0xce, 0x3c, 0x3e,
  0x38, 0x0f, 0xc5, 0xbd, 0x58, 0x6a, 0x41, 0xbe, 0x08, 0x0f, 0x03, 0xbe,
  0x0d, 0x4f, 0x7b, 0xbe, 0xaa, 0x29, 0x89, 0x3e, 0xc3, 0xcc, 0xb5, 0x3d,
  0x2b, 0x12, 0x49, 0xbe, 0xd3, 0xff, 0x69, 0x3e, 0xc6, 0xb7, 0x6a, 0x3e,
  0xa0, 0x9f, 0x90, 0xbe, 0x4b, 0xfa, 0x2f, 0xbe, 0x15, 0xc6, 0x6e, 0x3e,
  0x77, 0xd3, 0x80, 0x3d, 0xf5, 0x04, 0xbf, 0xbd, 0xa2, 0xb8, 0x7e, 0xbe,
  0xde, 0x05, 0x09, 0xbe, 0xf3, 0xa3, 0x27, 0x3d, 0x44, 0xfa, 0x65, 0x3e,
  0xa7, 0x1e, 0xa5, 0xbd, 0x03, 0xa9, 0xc7, 0x3d, 0x55, 0xae, 0x30, 0x3e,
  0xc5, 0x49, 0x8e, 0xbc, 0x74, 0xb9, 0x97, 0xbd, 0x10, 0x99, 0x97, 0xbe,
  0x3e, 0x17, 0xcb, 0x3d, 0x12, 0xa9, 0x43, 0x3e, 0x6d, 0x00, 0xe4, 0x3d,
  0x84, 0x7a, 0xba, 0xbd, 0x8d, 0xd1, 0x9c, 0x3d, 0xc1, 0x42, 0x77, 0x3e,
  0xe2, 0x73, 0xc1, 0xbb, 0x44, 0x50, 0xbd, 0x3a, 0x99, 0xea, 0x06, 0x3e,
  0x57, 0x89, 0x94, 0xbe, 0x74, 0x45, 0x53, 0xbd, 0x50, 0xac, 0x28, 0xbd,
  0x87, 0x3a, 0x57, 0xbe, 0xde, 0x11, 0x9d, 0x3e, 0x88, 0xf1, 0xde, 0x3d,
  0x57, 0x88, 0x91, 0x3c, 0x28, 0xf9, 0x9e, 0xbe, 0xce, 0x15, 0xf6, 0xbd,
  0x85, 0x88, 0x1e, 0xbe, 0xfb, 0xa6, 0xe5, 0xbd, 0xd5, 0xa5, 0x97, 0x3e,
  0xf9, 0x82, 0x6b, 0xbe, 0x27, 0x23, 0x8d, 0xbe, 0x94, 0x9b, 0xec, 0xbd,
  0x5c, 0x65, 0x55, 0x3e, 0xb9, 0x81, 0xce, 0x3d, 0x97, 0x97, 0x5b, 0xbe,
  0xb6, 0xfc, 0xfc, 0x3c, 0xdc, 0x09, 0x0b, 0x3e, 0x72, 0x6d, 0x5b, 0xbe,
  0x74, 0x21, 0x1d, 0xbd, 0x79, 0x78, 0xe3, 0xbd, 0x94, 0x28, 0xa8, 0xbc,
  0xb6, 0xc9, 0x1e, 0xbe, 0x74, 0x77, 0x37, 0x3e, 0x4f, 0xfe, 0x88, 0xbd,
  0x72, 0x99, 0x28, 0x3e, 0x35, 0xd4, 0x13, 0x3c, 0x97, 0x05, 0x86, 0xbc,
  0x9c, 0x78, 0x2e, 0x3e, 0x52, 0x4a, 0x9c, 0x3d, 0x8e, 0x6e, 0x07, 0xbd,
  0x11, 0x54, 0x1b, 0x3e, 0x7a, 0x6d, 0x29, 0xbe, 0xf6, 0x40, 0x13, 0x3d,
  0xe9, 0xf0, 0x5f, 0xbe, 0xa4, 0xc6, 0x83, 0xbb, 0xa0, 0x19, 0xd1, 0x3d,
  0x87, 0xd0, 0xfe, 0x3d, 0x4c, 0x88, 0x86, 0xbe, 0x08, 0xae, 0xa2, 0xbd,
  0x34, 0x07, 0x46, 0x3e, 0xa7, 0x5d, 0x65, 0x3d, 0xcc, 0x7f, 0x1d, 0x3e,
  0xfd, 0x22, 0xed, 0xbd, 0xc9, 0x91, 0x9c, 0x3d, 0x70, 0x88, 0xeb, 0x3d,
  0x86, 0x0f, 0xb6, 0xbd, 0xaf, 0x79, 0x23, 0xbe, 0x2b, 0x07, 0x9b, 0x3d,
  0x8e, 0x8e, 0x0a, 0x3e, 0x5f, 0x73, 0x01, 0xbe, 0x7c, 0x7e, 0x55, 0xbe,
  0x8d, 0xa6, 0x3a, 0x3e, 0x55, 0x76, 0x7d, 0xbd, 0x7e, 0x36, 0xe0, 0x3d,
  0x5b, 0x47, 0x87, 0xbe, 0x11, 0x37, 0xf4, 0xbd, 0x7a, 0xaf, 0x16, 0xbe,
  0xa1, 0x94, 0x1c, 0xbe, 0x0a, 0xa1, 0x39, 0x3e, 0xde, 0x9d, 0xd1, 0x3c,
  0xec, 0x73, 0x44, 0x3e, 0x5c, 0x66, 0xa4, 0xbc, 0x22, 0x13, 0x4f, 0xbe,
  0x63, 0x4e, 0xec, 0xbd, 0x7d, 0x5c, 0x3c, 0xbe, 0x77, 0x10, 0x98, 0x3e,
  0x04, 0xa9, 0xc2, 0x3d, 0xc1, 0x46, 0x87, 0x3d, 0x8e, 0xab, 0xfc, 0xbd,
  0xc7, 0x72, 0x90, 0x3e, 0xc2, 0x5e, 0x05, 0xbd, 0xf8, 0x91, 0x08, 0xbe,
  0x76, 0x9c, 0x4d, 0xbe, 0x63, 0xae, 0x38, 0x3e, 0x75, 0x4a, 0xe3, 0xbd,
  0x2a, 0x2d, 0x1c, 0x3e, 0x11, 0x25, 0xd9, 0xbc, 0x7b, 0x47, 0x37, 0xbd,
  0x18, 0x9d, 0x9b, 0x3e, 0xfa, 0xb9, 0x15, 0xbe, 0xcb, 0x89, 0x59, 0x3d,
  0x35, 0x3a, 0x17, 0x3e, 0xda, 0x6c, 0x90, 0x3e, 0x70, 0xb8, 0x04, 0xbe,
  0xf9, 0x3d, 0x0b, 0xbe, 0xe3, 0x2f, 0x92, 0xbe, 0x86, 0x37, 0x3f, 0x3e,
  0x57, 0x1e, 0xee, 0x3d, 0x00, 0x02, 0x66, 0x3e, 0x5c, 0x6a, 0x18, 0x3e,
  0x64, 0x95, 0x0b, 0xbe, 0x8e, 0x85, 0x60, 0xbd, 0x59, 0x21, 0x93, 0xbc,
  0x85, 0xd7, 0x36, 0xbe, 0xb8, 0xb5, 0x0c, 0xbe, 0x9c, 0x8c, 0x55, 0x3e,
  0x9e, 0xfa, 0x68, 0x3d, 0x05, 0x4d, 0x0b, 0xbe, 0xc9, 0x72, 0xaf, 0xbd,
  0xb5, 0xcf, 0x7e, 0x3e, 0x81, 0x81, 0x15, 0xbe, 0x9f, 0xb1, 0xc9, 0x3d,
  0x86, 0xd7, 0x2c, 0x3e, 0xe2, 0x31, 0xb3, 0xbd, 0x44, 0xa6, 0xd5, 0x3d,
  0xbb, 0xfc, 0x4f, 0x3d, 0x69, 0x39, 0x78, 0x3e, 0x9b, 0x2a, 0x5d, 0x3e,
  0x58, 0x1f, 0x25, 0xbc, 0x1e, 0xd5, 0x3b, 0x3d, 0x2d, 0x4d, 0xf0, 0xbd,
  0xc8, 0x05, 0x5a, 0x3c, 0x31, 0x30, 0x37, 0x3e, 0xd9, 0x93, 0x59, 0x3e,
  0x4e, 0xfd, 0x50, 0xbe, 0xe2, 0xb7, 0x0b, 0x3e, 0x18, 0xec, 0x38, 0xbe,
  0x53, 0x09, 0x81, 0xbe, 0x1f, 0x7e, 0xf4, 0x3d, 0xbd, 0x8c, 0x10, 0x3e,
  0xfb, 0x0c, 0xc3, 0x3c, 0x5a, 0xda, 0x8e, 0x3d, 0x79, 0xb5, 0x15, 0xbe,
  0x42, 0x53, 0x01, 0x3e, 0x90, 0xff, 0x8c, 0xbd, 0x94, 0xda, 0x2a, 0xbe,
  0x0f, 0x86, 0xa6, 0xbc, 0x29, 0xf3, 0x06, 0xbe, 0x13, 0x29, 0x5d, 0xbe,
  0x7e, 0x4f, 0x48, 0x3d, 0x0f, 0x46, 0x74, 0xbd, 0x90, 0xbf, 0x3f, 0x3e,
  0xf8, 0x5c, 0x67, 0x3e, 0xe1, 0xa9, 0x04, 0xbe, 0x7a, 0x55, 0xd3, 0x3c,
  0x90, 0xe7, 0x03, 0x3d, 0x0d, 0x7d, 0x0f, 0x3e, 0x4a, 0x48, 0x23, 0x3e,
  0x79, 0x2f, 0xe2, 0xbd, 0x96, 0x6b, 0x11, 0xbe, 0x80, 0xfa, 0x2e, 0x3a,
  0xb1, 0x95, 0x03, 0x3e, 0xeb, 0x9a, 0xea, 0xbd, 0x62, 0x93, 0xbd, 0x3c,
  0xe8, 0x8f, 0x1d, 0x3e, 0x24, 0x99, 0x68, 0x3e, 0xb3, 0x80, 0x30, 0x3e,
  0x3a, 0x3d, 0x9d, 0x3d, 0xb7, 0x8b, 0xcb, 0xbd, 0x0f, 0xd8, 0x04, 0xbe,
  0x93, 0xc3, 0x5f, 0x3e, 0x1f, 0xdb, 0x01, 0xbe, 0x8a, 0xef, 0x75, 0x3d,
  0xee, 0xd9, 0x6f, 0x3e, 0x5b, 0x7d, 0x30, 0x3e, 0x99, 0x55, 0xb8, 0xbd,
  0x42, 0xfe, 0xb6, 0x3d, 0xd1, 0x4b, 0x10, 0xbd, 0x51, 0xc8, 0x15, 0xbe,
  0xb2, 0x15, 0x86, 0xba, 0xf7, 0x8f, 0x45, 0xbe, 0x04, 0x8d, 0x9d, 0x3d,
  0x42, 0xb2, 0x53, 0x3e, 0x7d, 0x9a, 0xc7, 0xbd, 0x0e, 0xe2, 0xc0, 0xbd,
  0x66, 0xfc, 0xa8, 0xbc, 0x97, 0xdd, 0x36, 0x3e, 0x6e, 0x9f, 0x7e, 0xbc,
  0xb3, 0x84, 0x95, 0x3d, 0x40, 0xdb, 0x93, 0xbe, 0xe3, 0xca, 0x43, 0x3e,
  0xa9, 0xcf, 0x4b, 0xbe, 0x84, 0x28, 0xa0, 0x3b, 0x92, 0x02, 0x80, 0xbd,
  0xec, 0x42, 0x1b, 0x3e, 0xfd, 0x41, 0x4c, 0x3d, 0x99, 0xbf, 0x42, 0xbc,
  0x6a, 0x5f, 0x1a, 0xbe, 0x0e, 0x40, 0xbe, 0x3d, 0x7f, 0xf9, 0x6c, 0x3d,
  0x9d, 0x0d, 0xa1, 0xbd, 0x05, 0x67, 0x12, 0x3e, 0x52, 0xd3, 0x44, 0xbe,
  0xd9, 0xcf, 0x59, 0x3e, 0x8e, 0x34, 0xad, 0xbd, 0xac, 0x63, 0xc5, 0x3d,
  0x84, 0xf2, 0x12, 0xbe, 0x52, 0x62, 0x84, 0x3d, 0x61, 0x6d, 0x58, 0xbe,
  0x43, 0xd6, 0x18, 0x3e, 0xa4, 0x13, 0x4a, 0xbe, 0x30, 0xd3, 0x39, 0x3e,
  0x9b, 0x8d, 0x2e, 0x3e, 0x6a, 0x3d, 0xa0, 0x3e, 0x34, 0x29, 0xa2, 0x3c,
  0x06, 0x4f, 0x75, 0xbe, 0xb3, 0x1b, 0x47, 0xbd, 0x54, 0x3b, 0x2a, 0x3d,
  0x45, 0x71, 0x45, 0xbc, 0x72, 0x4a, 0x28, 0x3d, 0x5f, 0x58, 0x43, 0x3d,
  0xed, 0xe0, 0xd1, 0x3d, 0xf4, 0x7c, 0xf9, 0x3d, 0x36, 0xef, 0xbf, 0xbc,
  0x5a, 0xe3, 0x2a, 0x3d, 0xc6, 0x04, 0x09, 0xbe, 0x9b, 0x1a, 0xff, 0xbc,
  0x2a, 0xe7, 0x96, 0x3d, 0x8a, 0x28, 0xaf, 0x3d, 0x3d, 0x29, 0xb3, 0xbd,
  0x1a, 0x0f, 0x9c, 0xbd, 0x1e, 0xf5, 0x88, 0xbe, 0xe4, 0xb8, 0x2f, 0xbe,
  0xdf, 0xa2, 0x06, 0x3e, 0x57, 0x74, 0xf7, 0x3b, 0x2f, 0xfb, 0x92, 0xbd,
  0xfd, 0x4f, 0x7e, 0xbe, 0x47, 0xf3, 0x1f, 0xbe, 0x5f, 0xe9, 0xc3, 0x3d,
  0xc1, 0xf4, 0xdf, 0x3d, 0x74, 0xc0, 0x98, 0x3e, 0xa4, 0xff, 0x01, 0xbe,
  0xba, 0x61, 0x91, 0xbc, 0x36, 0xb0, 0x8e, 0xbe, 0x80, 0x4a, 0x2f, 0xbe,
  0x72, 0x6f, 0xc8, 0xbd, 0x2f, 0x94, 0x65, 0x3d, 0x27, 0xc2, 0x25, 0xbe,
  0x17, 0x1c, 0x6b, 0x3e, 0x8d, 0x88, 0xe4, 0xbd, 0xbc, 0x48, 0x4f, 0x3d,
  0x1c, 0x88, 0x48, 0x3d, 0x44, 0x1a, 0x86, 0x3e, 0x42, 0xe8, 0x25, 0x3e,
  0x52, 0x2e, 0x9e, 0x3e, 0xc9, 0x64, 0x29, 0xbc, 0x3e, 0xdc, 0x49, 0x3e,
  0x9a, 0x52, 0x94, 0xbe, 0xc2, 0xd8, 0x31, 0x3d, 0xab, 0x41, 0x80, 0xbe,
  0xfa, 0x86, 0x9f, 0xbe, 0x45, 0x04, 0x50, 0x3e, 0xf0, 0x18, 0x9d, 0x3e,
  0x4f, 0x38, 0x80, 0xbe, 0xc9, 0x56, 0x3e, 0xbe, 0x85, 0xb4, 0x85, 0xbe,
  0x6d, 0x14, 0x58, 0x3e, 0xf1, 0xa3, 0x96, 0xbe, 0x2f, 0x2d, 0x8e, 0xbe,
  0x2b, 0x36, 0x21, 0x3e, 0x9d, 0xde, 0xc5, 0xbd, 0x6e, 0x74, 0x0b, 0x3d,
  0xbc, 0x2b, 0xe5, 0xbd, 0x84, 0x6e, 0xbc, 0xbd, 0xa1, 0x52, 0x1f, 0xbe,
  0xdd, 0x8f, 0x12, 0xbe, 0x4b, 0x92, 0x1c, 0x3e, 0x81, 0x88, 0xfa, 0xbc,
  0x73, 0xc6, 0x56, 0x3e, 0xd5, 0xf9, 0xaf, 0x3d, 0x34, 0x8d, 0x8a, 0xbb,
  0x0e, 0x02, 0x6e, 0xbd, 0xdd, 0x27, 0x8b, 0xbe, 0x72, 0xc9, 0x50, 0xbe,
  0x30, 0x8c, 0xec, 0xbd, 0xfd, 0x8a, 0xb6, 0xbc, 0xc7, 0xf2, 0x32, 0x3e,
  0xa5, 0x49, 0x8a, 0x3e, 0x90, 0x20, 0x2e, 0x3e, 0x6b, 0x7a, 0x47, 0xbe,
  0x59, 0x50, 0x9b, 0xbe, 0x0b, 0x55, 0x1d, 0xbe, 0xc4, 0x9e, 0x37, 0xbe,
  0xfc, 0xfa, 0xca, 0x3d, 0xe5, 0x01, 0x14, 0x3e, 0xdc, 0xa5, 0x48, 0xbd,
  0x8e, 0x94, 0xa9, 0x3d, 0x5a, 0x35, 0xa1, 0xbe, 0x9d, 0x51, 0x58, 0x3e,
  0x54, 0xa7, 0x00, 0xbe, 0x6f, 0xac, 0xb0, 0x3d, 0x2c, 0x45, 0x8d, 0xbb,
  0x07, 0x0e, 0x59, 0xbe, 0x84, 0x97, 0x47, 0x3b, 0x2f, 0x77, 0x38, 0xbe,
  0xb0, 0xe5, 0xb7, 0xbc, 0x3f, 0x04, 0x72, 0xbd, 0x37, 0xe2, 0x36, 0xbe,
  0x34, 0x0d, 0x6a, 0xbe, 0xa2, 0xce, 0x1e, 0x3e, 0xe2, 0x52, 0xf8, 0x3d,
  0xa5, 0xa9, 0x9b, 0xbe, 0x0f, 0x8a, 0x08, 0x3d, 0xa8, 0xa1, 0x3e, 0xbd,
  0x4c, 0x5f, 0x1b, 0x3d, 0x0e, 0x98, 0xbc, 0x3d, 0x0a, 0x5d, 0x5d, 0x3d,
  0x97, 0x85, 0xfa, 0x3d, 0x2b, 0xbc, 0x98, 0xbc, 0x63, 0x89, 0x6c, 0xbd,
  0x2e, 0xeb, 0xf4, 0x3d, 0x92, 0x37, 0x1f, 0xbd, 0xd7, 0xec, 0x8c, 0x3d,
  0x83, 0xf1, 0x1c, 0x3e, 0xf1, 0xfe, 0xb6, 0xbd, 0x3f, 0xa2, 0xa0, 0xbd,
  0x16, 0x26, 0xd5, 0x3d, 0xf5, 0x4f, 0x45, 0x3e, 0x91, 0xb2, 0x0c, 0xbe,
  0x2e, 0x6d, 0x97, 0xbe, 0x7d, 0x2e, 0x21, 0xbe, 0x1b, 0x30, 0x0b, 0x3e,
  0x70, 0x90, 0x4a, 0xbe, 0xd0, 0x83, 0xa8, 0xbd, 0x19, 0x7e, 0x25, 0xbe,
  0x11, 0xa8, 0x06, 0xbe, 0x8e, 0xb2, 0xe0, 0x3d, 0x86, 0xed, 0xb2, 0x3d,
  0x81, 0xa5, 0x4a, 0xbe, 0xd6, 0x10, 0x90, 0xbe, 0x30, 0x56, 0x55, 0x3e,
  0x80, 0x4b, 0x6e, 0xbe, 0x1e, 0x75, 0x33, 0x3e, 0x13, 0x32, 0xdc, 0x3d,
  0x03, 0x9c, 0x87, 0x3d, 0x59, 0x03, 0x78, 0x3e, 0x6a, 0xc7, 0x53, 0x3e,
  0x73, 0xe3, 0xde, 0x3d, 0x4f, 0x1a, 0xca, 0x3d, 0x46, 0xbc, 0x36, 0x3e,
  0x5d, 0x5e, 0xe3, 0x3d, 0x8c, 0xed, 0xd6, 0xbd, 0x08, 0xb7, 0xf4, 0xbd,
  0x31, 0x2c, 0x60, 0xbe, 0x0b, 0xeb, 0x9a, 0xbc, 0x53, 0xee, 0xbd, 0x3d,
  0x2a, 0x94, 0x52, 0xbe, 0xdb, 0xe2, 0x9b, 0xbe, 0xd9, 0xc8, 0x9d, 0xbe,
  0xfe, 0x58, 0x9d, 0x3d, 0x3f, 0xff, 0x80, 0xbd, 0x00, 0x41, 0x52, 0x3e,
  0x17, 0x05, 0x5e, 0xbe, 0xe8, 0x40, 0xff, 0x3b, 0x85, 0xfc, 0xfc, 0x3d,
  0x25, 0xaf, 0x70, 0x3e, 0x80, 0x52, 0x00, 0xbe, 0xf2, 0xdc, 0x5e, 0xbe,
  0xea, 0x2e, 0x3e, 0x3e, 0x29, 0xe7, 0x09, 0x3e, 0x6a, 0x10, 0xbb, 0xbd,
  0x79, 0xa8, 0x19, 0xbe, 0x8b, 0xd0, 0x22, 0xbe, 0x99, 0x9b, 0x03, 0xbd,
  0x23, 0xdb, 0xf1, 0x3c, 0x30, 0x06, 0x8a, 0x3e, 0x60, 0x75, 0xc9, 0x3d,
  0x9a, 0x3b, 0x42, 0x3e, 0xf2, 0x1c, 0x86, 0x3c, 0x2e, 0x9a, 0x80, 0xbe,
  0x7a, 0x5d, 0x4c, 0xbe, 0x8c, 0x30, 0xea, 0xbc, 0x8d, 0xdc, 0x0e, 0xbd,
  0x60, 0xa5, 0x5a, 0xbe, 0xa3, 0x2a, 0x63, 0xbe, 0x33, 0x3b, 0xa7, 0xbc,
  0x71, 0x43, 0x05, 0x3e, 0x13, 0x30, 0xf4, 0x3d, 0x4e, 0x09, 0xe1, 0xbd,
  0x49, 0x12, 0x95, 0x3e, 0xc0, 0x9b, 0xa2, 0x3d, 0x59, 0x33, 0x85, 0xbd,
  0x00, 0x47, 0x0b, 0x3d, 0x99, 0xe5, 0x3f, 0xbe, 0x2c, 0x7f, 0x6a, 0x3e,
  0x84, 0xcd, 0x8c, 0x3e, 0xdb, 0xff, 0x8b, 0xbe, 0xf2, 0x98, 0x4e, 0x3e,
  0x8f, 0x5f, 0x3d, 0x3e, 0x5d, 0x90, 0x44, 0xbe, 0x37, 0x62, 0x64, 0xbd,
  0x9f, 0xc7, 0x30, 0x3c, 0xbf, 0x68, 0xc4, 0x3d, 0xe9, 0xba, 0x87, 0x3e,
  0xd5, 0xe4, 0x58, 0x3d, 0x99, 0x08, 0x8a, 0xbe, 0xd8, 0xa0, 0x1a, 0x3e,
  0xe1, 0xfe, 0x41, 0xbe, 0x38, 0x62, 0xf4, 0xbd, 0x22, 0xa8, 0x9e, 0x3d,
  0x3e, 0x99, 0x08, 0xbe, 0xce, 0x93, 0xa7, 0xbd, 0xfd, 0x6a, 0xa0, 0x3d,
  0xab, 0xfd, 0xc5, 0xbd, 0x13, 0x08, 0x8b, 0xbd, 0x3d, 0x02, 0x20, 0x3e,
  0x8e, 0x03, 0x22, 0x3c, 0x75, 0xea, 0xf8, 0x3d, 0xc6, 0x26, 0x7f, 0x3e,
  0x69, 0xec, 0x64, 0xbe, 0xbc, 0x15, 0x35, 0x3e, 0xe0, 0x20, 0x7a, 0xbb,
  0x05, 0x9e, 0x4a, 0x3e, 0xdd, 0x4f, 0x26, 0xbe, 0x4e, 0x8c, 0x2e, 0x3e,
  0x0d, 0x29, 0x83, 0x3e, 0xe8, 0x49, 0x2d, 0x3e, 0x19, 0xf1, 0xde, 0xbd,
  0xb2, 0xcd, 0x8f, 0xbe, 0x20, 0xdf, 0x2c, 0xbd, 0xc6, 0xbb, 0x1a, 0x3e,
  0x31, 0x2c, 0x08, 0xbd, 0x52, 0x84, 0x33, 0x3e, 0xac, 0xa1, 0x1b, 0x3e,
  0xcf, 0x0c, 0xf4, 0x3d, 0x73, 0xfe, 0x87, 0xbd, 0x0a, 0xa8, 0x67, 0xbd,
  0xe9, 0xfa, 0x24, 0x3d, 0x25, 0x7e, 0x16, 0xbc, 0xc9, 0x36, 0x61, 0x3c,
  0xf7, 0x89, 0x5f, 0x3d, 0xed, 0x2b, 0x74, 0xbd, 0x05, 0x20, 0x23, 0xbe,
  0xe5, 0xf9, 0x7e, 0xbe, 0xbf, 0x43, 0xe3, 0xbc, 0x00, 0xf3, 0x63, 0xbd,
  0x43, 0x69, 0x2f, 0x3d, 0xce, 0x4c, 0x30, 0xbe, 0xc2, 0x1f, 0x0b, 0xbe,
  0x2b, 0x8f, 0xd1, 0xbd, 0xf2, 0xfe, 0xff, 0xff, 0x04, 0x00, 0x00, 0x00,
  0x00, 0x01, 0x00, 0x00, 0x14, 0x1d, 0x14, 0x3d, 0xaa, 0x3c, 0x26, 0xbd,
  0x20, 0x7a, 0x5c, 0xbc, 0x91, 0xb0, 0x0d, 0x3d, 0x1b, 0x27, 0x1a, 0x3d,
  0x51, 0xba, 0xf6, 0x3c, 0xaa, 0x9d, 0x00, 0xbd, 0x1c, 0x8b, 0x0e, 0x3d,
  0x0b, 0xb4, 0x15, 0x3d, 0x45, 0x56, 0x22, 0x3d, 0x4a, 0x49, 0x0a, 0x3d,
  0xb1, 0xe6, 0x9c, 0x3c, 0x61, 0x47, 0x07, 0x3d, 0x2f, 0xbf, 0x78, 0x3c,
  0xf4, 0x65, 0x5c, 0xbc, 0x82, 0x36, 0xf0, 0x3c, 0xc8, 0x61, 0x20, 0xbd,
  0x3b, 0xf8, 0x28, 0xbc, 0xe2, 0xd4, 0x03, 0x3d, 0x89, 0x0d, 0xde, 0x3c,
  0xc7, 0x9e, 0x1d, 0x3d, 0x5c, 0x3c, 0x0b, 0x3d, 0xa1, 0xb0, 0xe5, 0x3c,
  0x52, 0xcc, 0x1e, 0x3d, 0x6f, 0x28, 0x03, 0xbd, 0x17, 0xe8, 0xba, 0xbc,
  0x06, 0x64, 0xf7, 0x3c, 0x9c, 0x6b, 0x0d, 0x3d, 0xb9, 0x06, 0xf3, 0xbc,
  0x71, 0x19, 0x25, 0x3d, 0x88, 0xc1, 0x25, 0x3d, 0xb0, 0xc1, 0xf6, 0xbc,
  0x5e, 0x4d, 0xf4, 0xbc, 0xea, 0x27, 0x33, 0x3c, 0xe5, 0xa1, 0x60, 0x3c,
  0x1d, 0xe7, 0xf2, 0x3c, 0xba, 0xa5, 0xdf, 0xbc, 0xe3, 0x3a, 0xd2, 0x3c,
  0x0e, 0x38, 0xe8, 0xbc, 0xfd, 0xd0, 0xd6, 0xbc, 0xad, 0xfd, 0x32, 0x3d,
  0x30, 0x3b, 0x00, 0xbd, 0xe2, 0x38, 0xd8, 0xbc, 0xe4, 0x6f, 0x3c, 0xbc,
  0xd1, 0x18, 0xef, 0xbc, 0x3d, 0x4e, 0x08, 0x3d, 0x9d, 0x0f, 0x1f, 0x3d,
  0x22, 0x94, 0xe2, 0x3c, 0xb2, 0x90, 0x11, 0x3d, 0x13, 0xf8, 0x0f, 0x3d,
  0x2a, 0xc3, 0x22, 0x3d, 0xb8, 0x22, 0x14, 0x3d, 0x2e, 0x19, 0x28, 0x3d,
  0xda, 0x6e, 0x0b, 0xbd, 0x71, 0x42, 0x0b, 0xbd, 0x92, 0x53, 0x2d, 0x3d,
  0x60, 0x81, 0x26, 0x3d, 0x30, 0xfa, 0x23, 0x3d, 0xb6, 0x42, 0x20, 0xbd,
  0xb3, 0x36, 0x85, 0x3c, 0x15, 0xa3, 0x1e, 0xbd, 0xfa, 0x80, 0x2a, 0x3d,
  0xa4, 0xa2, 0x98, 0xbc, 0x2b, 0x4f, 0x16, 0xbd, 0x00, 0x00, 0x06, 0x00,
  0x08, 0x00, 0x04, 0x00, 0x06, 0x00, 0x00, 0x00, 0x04, 0x00, 0x00, 0x00,
  0x0c, 0x00, 0x00, 0x00, 0xd8, 0xd1, 0x1b, 0x3d, 0xa4, 0x18, 0x1e, 0xbd,
  0xe0, 0x4f, 0x44, 0x3b, 0xe4, 0xfb, 0xff, 0xff, 0xe8, 0xfb, 0xff, 0xff,
  0x0f, 0x00, 0x00, 0x00, 0x4d, 0x4c, 0x49, 0x52, 0x20, 0x43, 0x6f, 0x6e,
  0x76, 0x65, 0x72, 0x74, 0x65, 0x64, 0x2e, 0x00, 0x01, 0x00, 0x00, 0x00,
  0x14, 0x00, 0x00, 0x00, 0x00, 0x00, 0x0e, 0x00, 0x18, 0x00, 0x14, 0x00,
  0x10, 0x00, 0x0c, 0x00, 0x08, 0x00, 0x04, 0x00, 0x0e, 0x00, 0x00, 0x00,
  0x14, 0x00, 0x00, 0x00, 0x1c, 0x00, 0x00, 0x00, 0xd0, 0x00, 0x00, 0x00,
  0xd4, 0x00, 0x00, 0x00, 0xd8, 0x00, 0x00, 0x00, 0x04, 0x00, 0x00, 0x00,
  0x6d, 0x61, 0x69, 0x6e, 0x00, 0x00, 0x00, 0x00, 0x03, 0x00, 0x00, 0x00,
  0x78, 0x00, 0x00, 0x00, 0x34, 0x00, 0x00, 0x00, 0x10, 0x00, 0x00, 0x00,
  0x00, 0x00, 0x0a, 0x00, 0x10, 0x00, 0x0c, 0x00, 0x08, 0x00, 0x04, 0x00,
  0x0a, 0x00, 0x00, 0x00, 0x0c, 0x00, 0x00, 0x00, 0x10, 0x00, 0x00, 0x00,
  0x01, 0x00, 0x00, 0x00, 0x01, 0x00, 0x00, 0x00, 0x07, 0x00, 0x00, 0x00,
  0x01, 0x00, 0x00, 0x00, 0x06, 0x00, 0x00, 0x00, 0xce, 0xff, 0xff, 0xff,
  0x10, 0x00, 0x00, 0x00, 0x00, 0x00, 0x00, 0x08, 0x0c, 0x00, 0x00, 0x00,
  0x10, 0x00, 0x00, 0x00, 0x8c, 0xfc, 0xff, 0xff, 0x01, 0x00, 0x00, 0x00,
  0x06, 0x00, 0x00, 0x00, 0x03, 0x00, 0x00, 0x00, 0x05, 0x00, 0x00, 0x00,
  0x04, 0x00, 0x00, 0x00, 0x01, 0x00, 0x00, 0x00, 0x00, 0x00, 0x0e, 0x00,
  0x16, 0x00, 0x00, 0x00, 0x10, 0x00, 0x0c, 0x00, 0x0b, 0x00, 0x04, 0x00,
  0x0e, 0x00, 0x00, 0x00, 0x18, 0x00, 0x00, 0x00, 0x00, 0x00, 0x00, 0x08,
  0x18, 0x00, 0x00, 0x00, 0x1c, 0x00, 0x00, 0x00, 0x00, 0x00, 0x06, 0x00,
  0x08, 0x00, 0x07, 0x00, 0x06, 0x00, 0x00, 0x00, 0x00, 0x00, 0x00, 0x01,
  0x01, 0x00, 0x00, 0x00, 0x05, 0x00, 0x00, 0x00, 0x03, 0x00, 0x00, 0x00,
  0x00, 0x00, 0x00, 0x00, 0x03, 0x00, 0x00, 0x00, 0x02, 0x00, 0x00, 0x00,
  0x01, 0x00, 0x00, 0x00, 0x07, 0x00, 0x00, 0x00, 0x01, 0x00, 0x00, 0x00,
  0x00, 0x00, 0x00, 0x00, 0x08, 0x00, 0x00, 0x00, 0xd0, 0x02, 0x00, 0x00,
  0x60, 0x02, 0x00, 0x00, 0xf4, 0x01, 0x00, 0x00, 0xac, 0x01, 0x00, 0x00,
  0x60, 0x01, 0x00, 0x00, 0xd8, 0x00, 0x00, 0x00, 0x60, 0x00, 0x00, 0x00,
  0x04, 0x00, 0x00, 0x00, 0x66, 0xfd, 0xff, 0xff, 0x00, 0x00, 0x00, 0x01,
  0x14, 0x00, 0x00, 0x00, 0x1c, 0x00, 0x00, 0x00, 0x1c, 0x00, 0x00, 0x00,
  0x08, 0x00, 0x00, 0x00, 0x34, 0x00, 0x00, 0x00, 0x02, 0x00, 0x00, 0x00,
  0xff, 0xff, 0xff, 0xff, 0x03, 0x00, 0x00, 0x00, 0x50, 0xfd, 0xff, 0xff,
  0x19, 0x00, 0x00, 0x00, 0x53, 0x74, 0x61, 0x74, 0x65, 0x66, 0x75, 0x6c,
  0x50, 0x61, 0x72, 0x74, 0x69, 0x74, 0x69, 0x6f, 0x6e, 0x65, 0x64, 0x43,
  0x61, 0x6c, 0x6c, 0x3a, 0x30, 0x00, 0x00, 0x00, 0x02, 0x00, 0x00, 0x00,
  0x01, 0x00, 0x00, 0x00, 0x03, 0x00, 0x00, 0x00, 0xbe, 0xfd, 0xff, 0xff,
  0x00, 0x00, 0x00, 0x01, 0x14, 0x00, 0x00, 0x00, 0x1c, 0x00, 0x00, 0x00,
  0x1c, 0x00, 0x00, 0x00, 0x07, 0x00, 0x00, 0x00, 0x50, 0x00, 0x00, 0x00,
  0x02, 0x00, 0x00, 0x00, 0xff, 0xff, 0xff, 0xff, 0x03, 0x00, 0x00, 0x00,
  0xa8, 0xfd, 0xff, 0xff, 0x34, 0x00, 0x00, 0x00, 0x73, 0x65, 0x71, 0x75,
  0x65, 0x6e, 0x74, 0x69, 0x61, 0x6c, 0x2f, 0x64, 0x65, 0x6e, 0x73, 0x65,
  0x5f, 0x31, 0x2f, 0x4d, 0x61, 0x74, 0x4d, 0x75, 0x6c, 0x3b, 0x73, 0x65,
  0x71, 0x75, 0x65, 0x6e, 0x74, 0x69, 0x61, 0x6c, 0x2f, 0x64, 0x65, 0x6e,
  0x73, 0x65, 0x5f, 0x31, 0x2f, 0x42, 0x69, 0x61, 0x73, 0x41, 0x64, 0x64,
  0x00, 0x00, 0x00, 0x00, 0x02, 0x00, 0x00, 0x00, 0x01, 0x00, 0x00, 0x00,
  0x03, 0x00, 0x00, 0x00, 0x32, 0xfe, 0xff, 0xff, 0x00, 0x00, 0x00, 0x01,
  0x14, 0x00, 0x00, 0x00, 0x1c, 0x00, 0x00, 0x00, 0x1c, 0x00, 0x00, 0x00,
  0x06, 0x00, 0x00, 0x00, 0x60, 0x00, 0x00, 0x00, 0x02, 0x00, 0x00, 0x00,
  0xff, 0xff, 0xff, 0xff, 0x40, 0x00, 0x00, 0x00, 0x1c, 0xfe, 0xff, 0xff,
  0x46, 0x00, 0x00, 0x00, 0x73, 0x65, 0x71, 0x75, 0x65, 0x6e, 0x74, 0x69,
  0x61, 0x6c, 0x2f, 0x64, 0x65, 0x6e, 0x73, 0x65, 0x2f, 0x4d, 0x61, 0x74,
  0x4d, 0x75, 0x6c, 0x3b, 0x73, 0x65, 0x71, 0x75, 0x65, 0x6e, 0x74, 0x69,
  0x61, 0x6c, 0x2f, 0x64, 0x65, 0x6e, 0x73, 0x65, 0x2f, 0x52, 0x65, 0x6c,
  0x75, 0x3b, 0x73, 0x65, 0x71, 0x75, 0x65, 0x6e, 0x74, 0x69, 0x61, 0x6c,
  0x2f, 0x64, 0x65, 0x6e, 0x73, 0x65, 0x2f, 0x42, 0x69, 0x61, 0x73, 0x41,
  0x64, 0x64, 0x00, 0x00, 0x02, 0x00, 0x00, 0x00, 0x01, 0x00, 0x00, 0x00,
  0x40, 0x00, 0x00, 0x00, 0x22, 0xff, 0xff, 0xff, 0x00, 0x00, 0x00, 0x01,
  0x10, 0x00, 0x00, 0x00, 0x10, 0x00, 0x00, 0x00, 0x05, 0x00, 0x00, 0x00,
  0x28, 0x00, 0x00, 0x00, 0x90, 0xfe, 0xff, 0xff, 0x19, 0x00, 0x00, 0x00,
  0x73, 0x65, 0x71, 0x75, 0x65, 0x6e, 0x74, 0x69, 0x61, 0x6c, 0x2f, 0x64,
  0x65, 0x6e, 0x73, 0x65, 0x5f, 0x31, 0x2f, 0x4d, 0x61, 0x74, 0x4d, 0x75,
  0x6c, 0x00, 0x00, 0x00, 0x02, 0x00, 0x00, 0x00, 0x03, 0x00, 0x00, 0x00,
  0x40, 0x00, 0x00, 0x00, 0x6a, 0xff, 0xff, 0xff, 0x00, 0x00, 0x00, 0x01,
  0x10, 0x00, 0x00, 0x00, 0x10, 0x00, 0x00, 0x00, 0x04, 0x00, 0x00, 0x00,
  0x24, 0x00, 0x00, 0x00, 0xd8, 0xfe, 0xff, 0xff, 0x17, 0x00, 0x00, 0x00,
  0x73, 0x65, 0x71, 0x75, 0x65, 0x6e, 0x74, 0x69, 0x61, 0x6c, 0x2f, 0x64,
  0x65, 0x6e, 0x73, 0x65, 0x2f, 0x4d, 0x61, 0x74, 0x4d, 0x75, 0x6c, 0x00,
  0x02, 0x00, 0x00, 0x00, 0x40, 0x00, 0x00, 0x00, 0x0d, 0x00, 0x00, 0x00,
  0xae, 0xff, 0xff, 0xff, 0x00, 0x00, 0x00, 0x01, 0x10, 0x00, 0x00, 0x00,
  0x10, 0x00, 0x00, 0x00, 0x03, 0x00, 0x00, 0x00, 0x34, 0x00, 0x00, 0x00,
  0x1c, 0xff, 0xff, 0xff, 0x27, 0x00, 0x00, 0x00, 0x73, 0x65, 0x71, 0x75,
  0x65, 0x6e, 0x74, 0x69, 0x61, 0x6c, 0x2f, 0x64, 0x65, 0x6e, 0x73, 0x65,
  0x2f, 0x42, 0x69, 0x61, 0x73, 0x41, 0x64, 0x64, 0x2f, 0x52, 0x65, 0x61,
  0x64, 0x56, 0x61, 0x72, 0x69, 0x61, 0x62, 0x6c, 0x65, 0x4f, 0x70, 0x00,
  0x01, 0x00, 0x00, 0x00, 0x40, 0x00, 0x00, 0x00, 0x00, 0x00, 0x16, 0x00,
  0x18, 0x00, 0x14, 0x00, 0x00, 0x00, 0x10, 0x00, 0x0c, 0x00, 0x08, 0x00,
  0x00, 0x00, 0x00, 0x00, 0x00, 0x00, 0x07, 0x00, 0x16, 0x00, 0x00, 0x00,
  0x00, 0x00, 0x00, 0x01, 0x10, 0x00, 0x00, 0x00, 0x10, 0x00, 0x00, 0x00,
  0x02, 0x00, 0x00, 0x00, 0x38, 0x00, 0x00, 0x00, 0x84, 0xff, 0xff, 0xff,
  0x29, 0x00, 0x00, 0x00, 0x73, 0x65, 0x71, 0x75, 0x65, 0x6e, 0x74, 0x69,
  0x61, 0x6c, 0x2f, 0x64, 0x65, 0x6e, 0x73, 0x65, 0x5f, 0x31, 0x2f, 0x42,
  0x69, 0x61, 0x73, 0x41, 0x64, 0x64, 0x2f, 0x52, 0x65, 0x61, 0x64, 0x56,
  0x61, 0x72, 0x69, 0x61, 0x62, 0x6c, 0x65, 0x4f, 0x70, 0x00, 0x00, 0x00,
  0x01, 0x00, 0x00, 0x00, 0x03, 0x00, 0x00, 0x00, 0x00, 0x00, 0x16, 0x00,
  0x1c, 0x00, 0x18, 0x00, 0x00, 0x00, 0x14, 0x00, 0x10, 0x00, 0x0c, 0x00,
  0x00, 0x00, 0x00, 0x00, 0x08, 0x00, 0x07, 0x00, 0x16, 0x00, 0x00, 0x00,
  0x00, 0x00, 0x00, 0x01, 0x14, 0x00, 0x00, 0x00, 0x20, 0x00, 0x00, 0x00,
  0x20, 0x00, 0x00, 0x00, 0x01, 0x00, 0x00, 0x00, 0x3c, 0x00, 0x00, 0x00,
  0x02, 0x00, 0x00, 0x00, 0xff, 0xff, 0xff, 0xff, 0x0d, 0x00, 0x00, 0x00,
  0x04, 0x00, 0x04, 0x00, 0x04, 0x00, 0x00, 0x00, 0x1d, 0x00, 0x00, 0x00,
  0x73, 0x65, 0x72, 0x76, 0x69, 0x6e, 0x67, 0x5f, 0x64, 0x65, 0x66, 0x61,
  0x75, 0x6c, 0x74, 0x5f, 0x64, 0x65, 0x6e, 0x73, 0x65, 0x5f, 0x69, 0x6e,
  0x70, 0x75, 0x74, 0x3a, 0x30, 0x00, 0x00, 0x00, 0x02, 0x00, 0x00, 0x00,
  0x01, 0x00, 0x00, 0x00, 0x0d, 0x00, 0x00, 0x00, 0x02, 0x00, 0x00, 0x00,
  0x20, 0x00, 0x00, 0x00, 0x04, 0x00, 0x00, 0x00, 0xf4, 0xff, 0xff, 0xff,
  0x0e, 0x00, 0x00, 0x00, 0x00, 0x00, 0x00, 0x0e, 0x0c, 0x00, 0x0c, 0x00,
  0x0b, 0x00, 0x00, 0x00, 0x00, 0x00, 0x04, 0x00, 0x0c, 0x00, 0x00, 0x00,
  0x09, 0x00, 0x00, 0x00, 0x00, 0x00, 0x00, 0x09
};
unsigned int model_tflite_len = 6020;
