unsigned char model_tflite[] = {
        0x1c, 0x00, 0x00, 0x00, 0x54, 0x46, 0x4c, 0x33, 0x14, 0x00, 0x20, 0x00,
        0x1c, 0x00, 0x18, 0x00, 0x14, 0x00, 0x10, 0x00, 0x0c, 0x00, 0x00, 0x00,
        0x08, 0x00, 0x04, 0x00, 0x14, 0x00, 0x00, 0x00, 0x1c, 0x00, 0x00, 0x00,
        0x90, 0x00, 0x00, 0x00, 0xe8, 0x00, 0x00, 0x00, 0xfc, 0x09, 0x00, 0x00,
        0x0c, 0x0a, 0x00, 0x00, 0xc8, 0x0f, 0x00, 0x00, 0x03, 0x00, 0x00, 0x00,
        0x01, 0x00, 0x00, 0x00, 0x10, 0x00, 0x00, 0x00, 0x00, 0x00, 0x0a, 0x00,
        0x10, 0x00, 0x0c, 0x00, 0x08, 0x00, 0x04, 0x00, 0x0a, 0x00, 0x00, 0x00,
        0x0c, 0x00, 0x00, 0x00, 0x1c, 0x00, 0x00, 0x00, 0x38, 0x00, 0x00, 0x00,
        0x0f, 0x00, 0x00, 0x00, 0x73, 0x65, 0x72, 0x76, 0x69, 0x6e, 0x67, 0x5f,
        0x64, 0x65, 0x66, 0x61, 0x75, 0x6c, 0x74, 0x00, 0x01, 0x00, 0x00, 0x00,
        0x04, 0x00, 0x00, 0x00, 0x98, 0xff, 0xff, 0xff, 0x0a, 0x00, 0x00, 0x00,
        0x04, 0x00, 0x00, 0x00, 0x07, 0x00, 0x00, 0x00, 0x64, 0x65, 0x6e, 0x73,
        0x65, 0x5f, 0x32, 0x00, 0x01, 0x00, 0x00, 0x00, 0x04, 0x00, 0x00, 0x00,
        0xe6, 0xf5, 0xff, 0xff, 0x04, 0x00, 0x00, 0x00, 0x0b, 0x00, 0x00, 0x00,
        0x64, 0x65, 0x6e, 0x73, 0x65, 0x5f, 0x69, 0x6e, 0x70, 0x75, 0x74, 0x00,
        0x02, 0x00, 0x00, 0x00, 0x34, 0x00, 0x00, 0x00, 0x04, 0x00, 0x00, 0x00,
        0xdc, 0xff, 0xff, 0xff, 0x0d, 0x00, 0x00, 0x00, 0x04, 0x00, 0x00, 0x00,
        0x13, 0x00, 0x00, 0x00, 0x43, 0x4f, 0x4e, 0x56, 0x45, 0x52, 0x53, 0x49,
        0x4f, 0x4e, 0x5f, 0x4d, 0x45, 0x54, 0x41, 0x44, 0x41, 0x54, 0x41, 0x00,
        0x08, 0x00, 0x0c, 0x00, 0x08, 0x00, 0x04, 0x00, 0x08, 0x00, 0x00, 0x00,
        0x0c, 0x00, 0x00, 0x00, 0x04, 0x00, 0x00, 0x00, 0x13, 0x00, 0x00, 0x00,
        0x6d, 0x69, 0x6e, 0x5f, 0x72, 0x75, 0x6e, 0x74, 0x69, 0x6d, 0x65, 0x5f,
        0x76, 0x65, 0x72, 0x73, 0x69, 0x6f, 0x6e, 0x00, 0x0e, 0x00, 0x00, 0x00,
        0x10, 0x09, 0x00, 0x00, 0x08, 0x09, 0x00, 0x00, 0xd0, 0x08, 0x00, 0x00,
        0xb8, 0x08, 0x00, 0x00, 0x58, 0x08, 0x00, 0x00, 0x38, 0x04, 0x00, 0x00,
        0x08, 0x01, 0x00, 0x00, 0xa8, 0x00, 0x00, 0x00, 0xa0, 0x00, 0x00, 0x00,
        0x98, 0x00, 0x00, 0x00, 0x90, 0x00, 0x00, 0x00, 0x88, 0x00, 0x00, 0x00,
        0x68, 0x00, 0x00, 0x00, 0x04, 0x00, 0x00, 0x00, 0x96, 0xf6, 0xff, 0xff,
        0x04, 0x00, 0x00, 0x00, 0x54, 0x00, 0x00, 0x00, 0x0c, 0x00, 0x00, 0x00,
        0x08, 0x00, 0x0e, 0x00, 0x08, 0x00, 0x04, 0x00, 0x08, 0x00, 0x00, 0x00,
        0x10, 0x00, 0x00, 0x00, 0x24, 0x00, 0x00, 0x00, 0x00, 0x00, 0x06, 0x00,
        0x08, 0x00, 0x04, 0x00, 0x06, 0x00, 0x00, 0x00, 0x04, 0x00, 0x00, 0x00,
        0x00, 0x00, 0x00, 0x00, 0x00, 0x00, 0x0a, 0x00, 0x10, 0x00, 0x0c, 0x00,
        0x08, 0x00, 0x04, 0x00, 0x0a, 0x00, 0x00, 0x00, 0x01, 0x00, 0x00, 0x00,
        0x02, 0x00, 0x00, 0x00, 0x04, 0x00, 0x00, 0x00, 0x06, 0x00, 0x00, 0x00,
        0x32, 0x2e, 0x31, 0x32, 0x2e, 0x30, 0x00, 0x00, 0xf6, 0xf6, 0xff, 0xff,
        0x04, 0x00, 0x00, 0x00, 0x10, 0x00, 0x00, 0x00, 0x31, 0x2e, 0x35, 0x2e,
        0x30, 0x00, 0x00, 0x00, 0x00, 0x00, 0x00, 0x00, 0x00, 0x00, 0x00, 0x00,
        0x04, 0xf2, 0xff, 0xff, 0x08, 0xf2, 0xff, 0xff, 0x0c, 0xf2, 0xff, 0xff,
        0x10, 0xf2, 0xff, 0xff, 0x22, 0xf7, 0xff, 0xff, 0x04, 0x00, 0x00, 0x00,
        0x50, 0x00, 0x00, 0x00, 0xb3, 0x07, 0x4b, 0xbd, 0x70, 0xa2, 0x12, 0x3e,
        0x80, 0x78, 0x0f, 0x3e, 0xb4, 0xf7, 0x69, 0x3e, 0x0b, 0xe4, 0x1c, 0x3f,
        0x9b, 0x81, 0xb1, 0x3e, 0xd6, 0x21, 0x00, 0xba, 0x55, 0xed, 0x16, 0x3f,
        0x36, 0x58, 0x54, 0x3e, 0x1a, 0xbc, 0xff, 0xbe, 0x83, 0x28, 0x1e, 0xbf,
        0x78, 0xa1, 0x66, 0xbe, 0xb2, 0xce, 0x8f, 0xbe, 0x74, 0x40, 0x15, 0x3f,
        0x4f, 0x4d, 0x15, 0x3f, 0x84, 0xe9, 0x36, 0x3d, 0x11, 0x8f, 0xa8, 0xbe,
        0x56, 0x81, 0x12, 0x3e, 0x17, 0x3b, 0x1a, 0xbf, 0xa4, 0x8e, 0x78, 0x3e,
        0x7e, 0xf7, 0xff, 0xff, 0x04, 0x00, 0x00, 0x00, 0x20, 0x03, 0x00, 0x00,
        0x74, 0xa1, 0xc3, 0x3e, 0x28, 0xb9, 0xaf, 0xbd, 0x1f, 0x8b, 0xad, 0x3d,
        0x7b, 0x73, 0xb6, 0x3e, 0x76, 0x28, 0xaa, 0xbe, 0x86, 0x96, 0xba, 0x3e,
        0x74, 0xca, 0x84, 0x3e, 0x44, 0x51, 0x14, 0x3e, 0x18, 0x8e, 0x28, 0xbe,
        0x86, 0xf8, 0xcc, 0x3e, 0x90, 0x67, 0xb7, 0x3e, 0xda, 0x24, 0x98, 0x3e,
        0xcf, 0xb0, 0xc4, 0x3e, 0x30, 0x33, 0xaf, 0x3e, 0xb4, 0xbc, 0xd9, 0xbe,
        0xbd, 0xb3, 0x5b, 0xbe, 0x00, 0x36, 0xa4, 0xba, 0x7e, 0xb9, 0x15, 0xbe,
        0x20, 0x33, 0xb9, 0x3c, 0x14, 0x86, 0x09, 0xbe, 0x88, 0x95, 0xc5, 0x3d,
        0x20, 0xca, 0xf0, 0xbd, 0xf0, 0x93, 0x63, 0x3e, 0x70, 0xe4, 0x61, 0x3e,
        0x4c, 0x53, 0x9b, 0x3e, 0xf8, 0x3c, 0x85, 0x3d, 0xf0, 0x43, 0x72, 0x3e,
        0x90, 0xcc, 0x97, 0x3d, 0x92, 0x1f, 0xce, 0xbe, 0xc0, 0xf8, 0x64, 0x3d,
        0x84, 0x59, 0xc0, 0xbe, 0x48, 0xb4, 0x49, 0x3e, 0xd0, 0x5d, 0xa0, 0xbd,
        0x00, 0xfc, 0x9c, 0x3d, 0x7c, 0x5c, 0xbb, 0x3e, 0xc0, 0xe6, 0x52, 0x3c,
        0xda, 0x95, 0xd1, 0x3e, 0xaf, 0x47, 0xe0, 0xbe, 0x9c, 0xf5, 0x3b, 0x3e,
        0xec, 0x20, 0xdc, 0x3e, 0x50, 0xef, 0x4c, 0xbd, 0x6e, 0xb8, 0xb6, 0xbe,
        0xa8, 0x7c, 0x46, 0xbe, 0x6c, 0x27, 0xde, 0x3e, 0xd8, 0x4d, 0x63, 0x3e,
        0x30, 0x91, 0xd6, 0x3e, 0x4e, 0x22, 0x7a, 0xbe, 0xa0, 0xdb, 0xf9, 0x3c,
        0x40, 0xa3, 0xba, 0xbe, 0x18, 0x1b, 0x3d, 0xbe, 0xb4, 0x3f, 0x83, 0xbe,
        0xf8, 0x80, 0xe5, 0x3d, 0xc0, 0x0c, 0xa2, 0xbe, 0xc8, 0xf2, 0xa7, 0xbd,
        0x4a, 0xee, 0x9e, 0xbe, 0x70, 0xbf, 0x44, 0x3e, 0x64, 0x8e, 0x1f, 0xbe,
        0x59, 0x32, 0x96, 0xbe, 0xfc, 0xa0, 0x31, 0x3e, 0x54, 0x74, 0x75, 0x3e,
        0xc0, 0x0b, 0xd8, 0x3d, 0xfe, 0xee, 0x98, 0xbe, 0xa9, 0x77, 0x9c, 0x3e,
        0x73, 0x93, 0xe9, 0x3e, 0x78, 0x5a, 0x42, 0x3e, 0x54, 0xd2, 0xd7, 0xbd,
        0x60, 0xb0, 0xd9, 0x3c, 0xc2, 0x78, 0x91, 0x3e, 0xa2, 0xd3, 0xab, 0xbe,
        0xa0, 0x4a, 0xd8, 0x3c, 0x1e, 0xaf, 0x44, 0xbe, 0x9f, 0x71, 0x66, 0xbe,
        0x14, 0xcc, 0x89, 0x3e, 0xb0, 0x06, 0x3a, 0x3e, 0x39, 0x29, 0x62, 0xbe,
        0xeb, 0xd9, 0x50, 0xbe, 0x8e, 0xe7, 0xa4, 0x3e, 0x5f, 0x84, 0x6c, 0x3e,
        0x2c, 0x5b, 0x57, 0x3e, 0x7c, 0x5a, 0x3e, 0x3e, 0xdc, 0xd9, 0xcb, 0x3e,
        0xa4, 0xf2, 0xc8, 0x3e, 0xb0, 0x81, 0x43, 0x3d, 0xfc, 0xa9, 0x03, 0xbe,
        0xe2, 0x9d, 0xa8, 0x3e, 0x6e, 0xe5, 0x1f, 0xbe, 0x2c, 0xbd, 0x89, 0x3e,
        0x88, 0x47, 0x2c, 0x3d, 0xee, 0xac, 0x17, 0xbe, 0x79, 0x14, 0xa7, 0xbe,
        0x39, 0x14, 0x5d, 0xbe, 0xe8, 0x26, 0x12, 0x3d, 0xd8, 0x34, 0x40, 0x3e,
        0x78, 0xbd, 0x51, 0x3d, 0xa4, 0x73, 0xcb, 0x3e, 0xb8, 0x85, 0x9a, 0xbe,
        0xbe, 0x4a, 0x9b, 0x3e, 0xa4, 0xb9, 0x93, 0x3e, 0x20, 0xa9, 0xd1, 0xbd,
        0xf8, 0xce, 0x86, 0xbe, 0x88, 0x97, 0xe3, 0xbe, 0x08, 0x4b, 0x7a, 0x3e,
        0x29, 0x98, 0xd7, 0x3e, 0x55, 0xdc, 0x5e, 0x3e, 0x72, 0x56, 0xc2, 0x3e,
        0xa4, 0x51, 0xcd, 0x3e, 0xe0, 0x52, 0x47, 0x3e, 0xf4, 0x7a, 0x54, 0x3e,
        0xcf, 0x07, 0x41, 0x3e, 0x30, 0x9d, 0x96, 0x3e, 0x32, 0xbb, 0x62, 0x3e,
        0x77, 0xe5, 0x50, 0xbe, 0x99, 0x27, 0x77, 0xbe, 0x9a, 0xca, 0xc8, 0x3e,
        0xc8, 0xc4, 0xcb, 0xbe, 0xd6, 0x8f, 0x7e, 0xbe, 0x4a, 0xd0, 0x08, 0xbe,
        0x48, 0xea, 0xeb, 0x3d, 0x54, 0x9f, 0xa4, 0x3e, 0x88, 0xed, 0x83, 0xbe,
        0xc8, 0xff, 0x07, 0x3e, 0x18, 0x8c, 0x58, 0x3e, 0xea, 0xc4, 0xb8, 0x3e,
        0xa3, 0xe4, 0x20, 0x3e, 0xac, 0x93, 0xbc, 0xbe, 0x40, 0x7e, 0xef, 0xbd,
        0xf9, 0xc5, 0x63, 0xbe, 0xdf, 0xdf, 0x7c, 0xbe, 0x47, 0xcc, 0xb1, 0x3c,
        0xf0, 0xe5, 0x73, 0xbd, 0x08, 0x5b, 0xd7, 0x3e, 0xd8, 0x0e, 0x9d, 0x3d,
        0xee, 0x2f, 0xdd, 0xbe, 0x28, 0xce, 0x4e, 0x3d, 0xb0, 0x06, 0x81, 0xbd,
        0xf2, 0xe8, 0x8c, 0xbd, 0x38, 0x3a, 0xb5, 0x3e, 0x45, 0x81, 0xac, 0x3d,
        0x70, 0x51, 0x3d, 0xbd, 0x04, 0x59, 0x62, 0x3e, 0x32, 0x6a, 0xbb, 0x3e,
        0x64, 0xa3, 0xa1, 0x3e, 0x89, 0xf5, 0x8f, 0x3e, 0x92, 0x70, 0xb8, 0x3e,
        0xc0, 0xe1, 0x5f, 0x3d, 0x28, 0x5e, 0x57, 0xbd, 0xb4, 0xaf, 0xd0, 0x3e,
        0x20, 0x21, 0xbb, 0xbd, 0xcc, 0x89, 0x90, 0xbd, 0x00, 0x49, 0x28, 0xbc,
        0x5f, 0x8b, 0xa4, 0x3d, 0xd6, 0x3e, 0x18, 0xbe, 0xf6, 0x20, 0xd2, 0x3e,
        0x6c, 0x6f, 0x21, 0x3e, 0x60, 0xab, 0x5d, 0x3d, 0x1b, 0xae, 0x0c, 0xbe,
        0x34, 0x0e, 0xc7, 0xbd, 0xe4, 0xff, 0xa3, 0xbe, 0xa2, 0x80, 0xa3, 0xbe,
        0x68, 0x93, 0x75, 0x3e, 0x86, 0xe3, 0xc0, 0xbe, 0x33, 0xb2, 0x4e, 0xbe,
        0x14, 0x10, 0xf0, 0x3c, 0xdc, 0xf2, 0xa3, 0xbe, 0x0e, 0x53, 0x4d, 0xbe,
        0x00, 0xfc, 0x11, 0xba, 0xd2, 0x3d, 0x93, 0x3e, 0x00, 0x10, 0x30, 0x3b,
        0x8d, 0x93, 0xa1, 0x3d, 0x1c, 0x0f, 0x83, 0x3e, 0x79, 0x8d, 0x31, 0xbe,
        0x04, 0xea, 0xda, 0x3e, 0x5f, 0xc5, 0x7f, 0x3e, 0x8c, 0x24, 0x06, 0x3e,
        0x10, 0x63, 0xa9, 0x3e, 0xbe, 0x8d, 0xbc, 0xbd, 0xc0, 0xaa, 0x35, 0x3d,
        0xd7, 0x4f, 0x65, 0x3e, 0x80, 0x3c, 0xe4, 0xbb, 0xf0, 0x22, 0xf4, 0x3d,
        0xf8, 0x7e, 0x11, 0xbd, 0x81, 0x6a, 0xa6, 0xbe, 0xb3, 0xea, 0xae, 0x3e,
        0x0e, 0x55, 0x9f, 0x3e, 0xd0, 0x96, 0x42, 0xbe, 0xb6, 0xea, 0xbc, 0x3e,
        0x68, 0xbe, 0xcf, 0x3e, 0x5e, 0x7a, 0x91, 0xbe, 0xc6, 0xf2, 0xea, 0x3e,
        0x46, 0x00, 0xb6, 0x3e, 0x4a, 0x6b, 0x91, 0xbd, 0xd0, 0x2b, 0x03, 0x3d,
        0x9d, 0x8a, 0x95, 0x3e, 0xde, 0xeb, 0x9b, 0x3e, 0x48, 0x23, 0x33, 0xbd,
        0x11, 0xe3, 0x18, 0xbe, 0x32, 0xde, 0xd8, 0x3e, 0x84, 0xb5, 0x0e, 0x3e,
        0x96, 0xa8, 0xa8, 0x3e, 0x52, 0x25, 0xac, 0x3e, 0xaa, 0xfa, 0xff, 0xff,
        0x04, 0x00, 0x00, 0x00, 0x10, 0x04, 0x00, 0x00, 0x58, 0xa8, 0xca, 0xbe,
        0x61, 0xb6, 0xad, 0xbe, 0x76, 0x95, 0x18, 0xbe, 0xf3, 0x57, 0x7c, 0xbe,
        0x80, 0xd3, 0x8e, 0x3d, 0xf0, 0xf1, 0x5a, 0x3e, 0x49, 0x7c, 0xc3, 0xbe,
        0x68, 0x84, 0x19, 0x3e, 0x08, 0xfe, 0x89, 0x3d, 0x50, 0x4d, 0x77, 0xbd,
        0x52, 0xd0, 0xca, 0x3e, 0x10, 0xf5, 0x8c, 0x3e, 0x52, 0xbc, 0xae, 0xbe,
        0xe4, 0xab, 0x28, 0xbe, 0x23, 0x5f, 0xba, 0xbe, 0xb0, 0x8c, 0x8f, 0xbe,
        0xfb, 0x57, 0x97, 0xbe, 0xa0, 0xe4, 0x73, 0x3e, 0xe0, 0x88, 0x26, 0xbc,
        0x62, 0xbd, 0x98, 0x3e, 0x60, 0x4f, 0xda, 0x3c, 0x28, 0x94, 0x7c, 0x3d,
        0xc0, 0x03, 0xf4, 0x3d, 0x08, 0x4c, 0x0c, 0xbe, 0x80, 0xd5, 0xb2, 0x3e,
        0x68, 0x8e, 0x24, 0x3e, 0x29, 0x50, 0x3e, 0xbe, 0xc4, 0xfc, 0x92, 0x3e,
        0x27, 0x50, 0x41, 0xbe, 0x5c, 0xd7, 0x27, 0x3e, 0x11, 0x39, 0x73, 0x3e,
        0x46, 0x32, 0x93, 0xbd, 0x97, 0xe0, 0xde, 0xbe, 0xc1, 0x66, 0x38, 0xbe,
        0xf2, 0xbd, 0x51, 0xbd, 0xc9, 0x58, 0x11, 0x3e, 0xf8, 0xc3, 0x19, 0xbd,
        0x04, 0x28, 0xbd, 0x3e, 0xaa, 0xc7, 0xd1, 0x3d, 0xca, 0xe1, 0x4a, 0x3e,
        0x1a, 0xa1, 0x2f, 0xbd, 0x0c, 0x37, 0xd7, 0x3e, 0xcc, 0x12, 0x1a, 0xbe,
        0xe3, 0xa0, 0x21, 0xbe, 0xb8, 0xc0, 0x2d, 0x3e, 0xca, 0x75, 0xf6, 0xbd,
        0x3b, 0xc6, 0x86, 0x3d, 0x4e, 0x0a, 0x9d, 0x3d, 0x81, 0xa9, 0x77, 0xbe,
        0xc0, 0xf1, 0x56, 0xbd, 0x68, 0xfb, 0x54, 0x3d, 0x48, 0xf9, 0x88, 0x3e,
        0xa8, 0x18, 0xb7, 0x3d, 0x6a, 0x32, 0x8e, 0x3e, 0x8c, 0x86, 0x02, 0x3e,
        0x4a, 0x0a, 0x8f, 0x3e, 0x9a, 0xeb, 0xae, 0xbe, 0x20, 0x73, 0x70, 0x3e,
        0x70, 0x72, 0xbc, 0x3c, 0xbe, 0xfa, 0xb7, 0xbe, 0x0c, 0x25, 0xb2, 0x3e,
        0xb0, 0xb7, 0x8e, 0xbe, 0x30, 0x26, 0xdd, 0xbc, 0x32, 0xb2, 0x8d, 0x3e,
        0x0c, 0x1d, 0x06, 0xbe, 0x60, 0xe9, 0x20, 0x3d, 0x4a, 0xf2, 0x1d, 0xbe,
        0x9c, 0xde, 0x75, 0x3e, 0x80, 0xb4, 0x2c, 0xbb, 0x46, 0x1e, 0x07, 0xbe,
        0x47, 0x03, 0xaf, 0xbe, 0x4c, 0xcb, 0x7c, 0x3e, 0xe0, 0xc9, 0xc2, 0xbe,
        0x46, 0x56, 0x97, 0x3e, 0xe0, 0xe2, 0x3e, 0x3c, 0x9a, 0x3a, 0xd2, 0x3e,
        0x48, 0xd4, 0xd3, 0x3e, 0x98, 0x8c, 0xc9, 0xbd, 0xb0, 0xa5, 0x20, 0xbd,
        0x40, 0xdb, 0xd6, 0x3e, 0x10, 0x8e, 0xe3, 0x3d, 0x6a, 0xb8, 0x03, 0xbe,
        0x30, 0xa8, 0xf5, 0xbd, 0xeb, 0x6e, 0xd1, 0xbe, 0x16, 0x22, 0xbc, 0x3e,
        0x6c, 0xe4, 0x74, 0x3e, 0xb0, 0x4f, 0x03, 0xbd, 0x38, 0x53, 0x5c, 0x3d,
        0x42, 0x6f, 0xa4, 0xbe, 0xf0, 0x8d, 0x2b, 0x3e, 0x2f, 0x3c, 0xba, 0xbe,
        0xd0, 0x81, 0xe0, 0x3c, 0xf2, 0xbf, 0x1e, 0xbe, 0xe0, 0x38, 0xe6, 0x3d,
        0x94, 0x92, 0x8f, 0xbd, 0xc0, 0xee, 0x5c, 0x3d, 0xd8, 0x10, 0x4e, 0x3e,
        0x06, 0x07, 0xa2, 0x3e, 0xe0, 0x50, 0xcb, 0x3c, 0x20, 0x07, 0x34, 0xbc,
        0x20, 0x92, 0x93, 0x3c, 0x98, 0x07, 0xaa, 0xbe, 0x2a, 0x7d, 0x9e, 0xbe,
        0xb6, 0xcd, 0xd1, 0xbe, 0x5d, 0x24, 0x5f, 0xbe, 0xa0, 0xd0, 0x81, 0x3c,
        0x21, 0x17, 0x94, 0x3e, 0x80, 0xcd, 0x51, 0x3e, 0x6f, 0x02, 0x0e, 0xbc,
        0x9b, 0x37, 0x20, 0xbe, 0xc2, 0xdf, 0x4c, 0xbe, 0xf0, 0x1f, 0xba, 0xbe,
        0x38, 0x28, 0x0f, 0xbe, 0x9a, 0xf1, 0xae, 0x3c, 0x96, 0x5d, 0xb3, 0xbe,
        0xae, 0x2a, 0xbe, 0xbe, 0x4e, 0xec, 0xc0, 0x3e, 0x48, 0x66, 0xca, 0xbd,
        0xec, 0xb6, 0xa8, 0xbe, 0xa4, 0x2c, 0xf0, 0xbd, 0x0f, 0xbc, 0xd6, 0xbe,
        0xbc, 0x7c, 0x98, 0xbd, 0x26, 0xcc, 0xb9, 0x3e, 0x76, 0xbb, 0xd4, 0x3e,
        0x3e, 0x24, 0x98, 0xbe, 0x90, 0x84, 0x8e, 0x3e, 0xb4, 0xfb, 0x25, 0x3e,
        0x1c, 0x8a, 0x7e, 0xbe, 0x3d, 0x6d, 0xcf, 0xbe, 0x10, 0x35, 0xc1, 0xbe,
        0x34, 0x4b, 0xc0, 0x3e, 0x1e, 0xcc, 0x6d, 0x3e, 0xd2, 0xbd, 0xbc, 0xbe,
        0xc0, 0xd0, 0x7a, 0x3e, 0x4c, 0x76, 0x72, 0x3d, 0xc7, 0x60, 0x07, 0xbd,
        0x2a, 0xed, 0x03, 0xbe, 0x45, 0xbf, 0xb6, 0x3d, 0x3f, 0x43, 0x1a, 0x3e,
        0xdf, 0x0c, 0x33, 0x3c, 0x33, 0xc4, 0xb3, 0x3e, 0x4e, 0x41, 0x89, 0xbe,
        0x42, 0xf8, 0xac, 0x3e, 0xc8, 0x18, 0x29, 0x3e, 0x40, 0xd3, 0x75, 0x3c,
        0x5e, 0xa1, 0xbd, 0x3e, 0xfa, 0xc9, 0xbd, 0x3e, 0x30, 0xc4, 0xc6, 0xbd,
        0x56, 0x59, 0x58, 0xbe, 0x78, 0xf5, 0xb0, 0xbd, 0x10, 0x13, 0xdf, 0xbc,
        0x38, 0xf0, 0x86, 0x3e, 0x30, 0x83, 0x54, 0x3d, 0xfd, 0x8a, 0xa6, 0xbe,
        0x26, 0x8e, 0xcd, 0xbe, 0x80, 0x63, 0x0d, 0xbc, 0xe8, 0x4a, 0x42, 0x3d,
        0xb9, 0xfd, 0x6f, 0xbd, 0xab, 0x61, 0xd1, 0x3e, 0xd6, 0xc6, 0x8f, 0xbe,
        0xef, 0x8a, 0xaf, 0x3d, 0x49, 0xdd, 0xa9, 0xbe, 0x31, 0x83, 0x86, 0x3e,
        0x86, 0x20, 0xa0, 0xbe, 0x6a, 0x6d, 0x8f, 0xbe, 0xbb, 0xaa, 0x82, 0xbe,
        0xd4, 0x6d, 0x82, 0x3e, 0x80, 0x3b, 0x28, 0x3d, 0xc6, 0xa1, 0x47, 0xbd,
        0xe2, 0xa1, 0x95, 0x3e, 0x0b, 0x0f, 0x8b, 0xbe, 0x54, 0xf9, 0x5f, 0x3e,
        0x60, 0x58, 0x4b, 0x3d, 0x36, 0xfa, 0xb7, 0xbe, 0x90, 0xf0, 0x5e, 0xbd,
        0xf8, 0x34, 0xf6, 0x3d, 0xb0, 0x9f, 0xd2, 0xbd, 0xee, 0x67, 0xcd, 0x3e,
        0xd0, 0x6b, 0xc2, 0x3e, 0xa8, 0x3c, 0x33, 0xbe, 0x56, 0xc7, 0x83, 0xbe,
        0x40, 0x70, 0xf2, 0x3c, 0xc9, 0xe1, 0x58, 0xbe, 0x24, 0x9f, 0x80, 0xbd,
        0xf0, 0xef, 0xec, 0x3d, 0x98, 0x12, 0x6b, 0xbe, 0x70, 0x25, 0x2a, 0x3d,
        0xd1, 0x58, 0xa2, 0xbe, 0x80, 0xcf, 0x7a, 0xbb, 0x54, 0xb2, 0xc0, 0xbe,
        0xf8, 0x36, 0x1e, 0xbe, 0x94, 0x62, 0xd0, 0x3e, 0xaf, 0x76, 0xd0, 0xbe,
        0xba, 0x43, 0x88, 0xbe, 0x88, 0xa0, 0x63, 0x3e, 0xc8, 0x43, 0xb3, 0x3e,
        0xa6, 0x85, 0xeb, 0xbd, 0x01, 0x7c, 0x44, 0x3e, 0xa0, 0xa3, 0xdb, 0xbc,
        0xdd, 0xe8, 0xb9, 0xbe, 0xe8, 0x7e, 0x9f, 0x3e, 0xcb, 0x9e, 0x3d, 0xbe,
        0xd1, 0x34, 0xb9, 0x3d, 0x7c, 0xdc, 0x84, 0xbe, 0xc8, 0x1f, 0x97, 0x3e,
        0x36, 0x8f, 0x9a, 0xbe, 0x80, 0x2f, 0x88, 0x3b, 0x9c, 0xcb, 0x98, 0x3e,
        0x28, 0xb6, 0x11, 0x3e, 0x44, 0x36, 0x18, 0xbe, 0x30, 0x40, 0x32, 0x3d,
        0xcf, 0x4d, 0xb2, 0xbe, 0x86, 0x9b, 0x81, 0xbe, 0x14, 0x2a, 0xf7, 0xbd,
        0x07, 0xc7, 0x92, 0xbe, 0x08, 0x2a, 0x9f, 0x3e, 0x18, 0xad, 0x9f, 0x3d,
        0x26, 0x74, 0x34, 0xbe, 0xfc, 0xb7, 0x21, 0x3e, 0xac, 0xe9, 0x33, 0xbe,
        0xbd, 0xf4, 0xac, 0xbe, 0x1d, 0xaf, 0x92, 0xbe, 0xc1, 0x7e, 0xe4, 0xbc,
        0x1f, 0x02, 0xc5, 0xbd, 0xf4, 0x2e, 0x07, 0x3e, 0x38, 0xe1, 0xb9, 0xbe,
        0xb9, 0x57, 0xb4, 0x3e, 0x06, 0x55, 0xd7, 0x3c, 0x9f, 0x06, 0x2b, 0xbe,
        0x1b, 0xe6, 0xaa, 0x3d, 0x54, 0x59, 0x7d, 0xbd, 0xc6, 0xe5, 0x32, 0xbe,
        0xc0, 0xb7, 0xf5, 0x3d, 0x81, 0x3a, 0xbc, 0x3e, 0x78, 0x45, 0x46, 0xbe,
        0xf0, 0x2c, 0x76, 0x3e, 0x29, 0xf1, 0x57, 0xbe, 0xa4, 0x74, 0x27, 0x3e,
        0xbc, 0x2f, 0xf3, 0xbd, 0x8d, 0x0f, 0x42, 0xbe, 0xc4, 0xce, 0xdc, 0xbd,
        0xa0, 0x82, 0x09, 0xbd, 0xcc, 0x2b, 0x59, 0x3e, 0x66, 0x5c, 0xa0, 0x3e,
        0x10, 0x3b, 0x5c, 0xbe, 0xfe, 0xaa, 0x8f, 0xbe, 0x60, 0xd3, 0x15, 0x3e,
        0xfa, 0x08, 0xcb, 0x3e, 0x04, 0x82, 0x69, 0xbe, 0xf0, 0x9b, 0xcc, 0x3e,
        0xbc, 0xe4, 0x33, 0x3e, 0xae, 0xf6, 0x58, 0xbe, 0xf0, 0xc4, 0xb5, 0x3e,
        0x5e, 0xe7, 0x1f, 0xbe, 0x18, 0x63, 0x64, 0x3e, 0xa8, 0x75, 0x51, 0x3e,
        0xa8, 0x27, 0x90, 0x3d, 0xf8, 0xfd, 0x87, 0x3e, 0x09, 0x5c, 0x8b, 0xbe,
        0x00, 0xc6, 0xd6, 0x3a, 0xc6, 0xfe, 0xff, 0xff, 0x04, 0x00, 0x00, 0x00,
        0x50, 0x00, 0x00, 0x00, 0x00, 0x00, 0x00, 0x00, 0x00, 0x00, 0x00, 0x00,
        0x23, 0xf0, 0x60, 0xbc, 0x77, 0x6f, 0x66, 0x3c, 0x00, 0x00, 0x00, 0x00,
        0x00, 0x00, 0x00, 0x00, 0x00, 0x00, 0x00, 0x00, 0x00, 0x00, 0x00, 0x00,
        0x34, 0xf3, 0x64, 0x3c, 0x00, 0x00, 0x00, 0x00, 0x20, 0x3d, 0x63, 0xbc,
        0x00, 0x00, 0x00, 0x00, 0x05, 0x4e, 0x61, 0xbc, 0x00, 0x00, 0x00, 0x00,
        0x00, 0x00, 0x00, 0x00, 0x08, 0x4e, 0x64, 0x3c, 0x00, 0x00, 0x00, 0x00,
        0xda, 0x78, 0x65, 0x3c, 0x00, 0x00, 0x00, 0x00, 0x00, 0x00, 0x00, 0x00,
        0x22, 0xff, 0xff, 0xff, 0x04, 0x00, 0x00, 0x00, 0x08, 0x00, 0x00, 0x00,
        0x89, 0xd2, 0x63, 0xbc, 0x89, 0xd2, 0x63, 0x3c, 0x36, 0xff, 0xff, 0xff,
        0x04, 0x00, 0x00, 0x00, 0x28, 0x00, 0x00, 0x00, 0xf3, 0xa2, 0x63, 0xbc,
        0x00, 0x00, 0x00, 0x00, 0x00, 0x00, 0x00, 0x00, 0x80, 0x23, 0x64, 0x3c,
        0x00, 0x00, 0x00, 0x00, 0xcd, 0x7a, 0x63, 0xbc, 0x81, 0x82, 0x63, 0xbc,
        0x53, 0x96, 0x63, 0xbc, 0x1d, 0xb1, 0x63, 0xbc, 0x79, 0xf8, 0x63, 0x3c,
        0x5c, 0xfa, 0xff, 0xff, 0x60, 0xfa, 0xff, 0xff, 0x0f, 0x00, 0x00, 0x00,
        0x4d, 0x4c, 0x49, 0x52, 0x20, 0x43, 0x6f, 0x6e, 0x76, 0x65, 0x72, 0x74,
        0x65, 0x64, 0x2e, 0x00, 0x01, 0x00, 0x00, 0x00, 0x14, 0x00, 0x00, 0x00,
        0x00, 0x00, 0x0e, 0x00, 0x18, 0x00, 0x14, 0x00, 0x10, 0x00, 0x0c, 0x00,
        0x08, 0x00, 0x04, 0x00, 0x0e, 0x00, 0x00, 0x00, 0x14, 0x00, 0x00, 0x00,
        0x1c, 0x00, 0x00, 0x00, 0x24, 0x01, 0x00, 0x00, 0x28, 0x01, 0x00, 0x00,
        0x2c, 0x01, 0x00, 0x00, 0x04, 0x00, 0x00, 0x00, 0x6d, 0x61, 0x69, 0x6e,
        0x00, 0x00, 0x00, 0x00, 0x04, 0x00, 0x00, 0x00, 0xcc, 0x00, 0x00, 0x00,
        0x84, 0x00, 0x00, 0x00, 0x50, 0x00, 0x00, 0x00, 0x14, 0x00, 0x00, 0x00,
        0x00, 0x00, 0x0e, 0x00, 0x1a, 0x00, 0x14, 0x00, 0x10, 0x00, 0x0c, 0x00,
        0x0b, 0x00, 0x04, 0x00, 0x0e, 0x00, 0x00, 0x00, 0x1c, 0x00, 0x00, 0x00,
        0x00, 0x00, 0x00, 0x09, 0x1c, 0x00, 0x00, 0x00, 0x20, 0x00, 0x00, 0x00,
        0x01, 0x00, 0x00, 0x00, 0x00, 0x00, 0x06, 0x00, 0x08, 0x00, 0x04, 0x00,
        0x06, 0x00, 0x00, 0x00, 0x00, 0x00, 0x80, 0x3f, 0x01, 0x00, 0x00, 0x00,
        0x0a, 0x00, 0x00, 0x00, 0x01, 0x00, 0x00, 0x00, 0x09, 0x00, 0x00, 0x00,
        0x9a, 0xff, 0xff, 0xff, 0x10, 0x00, 0x00, 0x00, 0x00, 0x00, 0x00, 0x08,
        0x0c, 0x00, 0x00, 0x00, 0x10, 0x00, 0x00, 0x00, 0x24, 0xfb, 0xff, 0xff,
        0x01, 0x00, 0x00, 0x00, 0x09, 0x00, 0x00, 0x00, 0x03, 0x00, 0x00, 0x00,
        0x08, 0x00, 0x00, 0x00, 0x06, 0x00, 0x00, 0x00, 0x02, 0x00, 0x00, 0x00,
        0xca, 0xff, 0xff, 0xff, 0x10, 0x00, 0x00, 0x00, 0x00, 0x00, 0x00, 0x08,
        0x10, 0x00, 0x00, 0x00, 0x14, 0x00, 0x00, 0x00, 0xba, 0xff, 0xff, 0xff,
        0x00, 0x00, 0x00, 0x01, 0x01, 0x00, 0x00, 0x00, 0x08, 0x00, 0x00, 0x00,
        0x03, 0x00, 0x00, 0x00, 0x07, 0x00, 0x00, 0x00, 0x05, 0x00, 0x00, 0x00,
        0x01, 0x00, 0x00, 0x00, 0x00, 0x00, 0x0e, 0x00, 0x16, 0x00, 0x00, 0x00,
        0x10, 0x00, 0x0c, 0x00, 0x0b, 0x00, 0x04, 0x00, 0x0e, 0x00, 0x00, 0x00,
        0x18, 0x00, 0x00, 0x00, 0x00, 0x00, 0x00, 0x08, 0x18, 0x00, 0x00, 0x00,
        0x1c, 0x00, 0x00, 0x00, 0x00, 0x00, 0x06, 0x00, 0x08, 0x00, 0x07, 0x00,
        0x06, 0x00, 0x00, 0x00, 0x00, 0x00, 0x00, 0x01, 0x01, 0x00, 0x00, 0x00,
        0x07, 0x00, 0x00, 0x00, 0x03, 0x00, 0x00, 0x00, 0x00, 0x00, 0x00, 0x00,
        0x04, 0x00, 0x00, 0x00, 0x03, 0x00, 0x00, 0x00, 0x01, 0x00, 0x00, 0x00,
        0x0a, 0x00, 0x00, 0x00, 0x01, 0x00, 0x00, 0x00, 0x00, 0x00, 0x00, 0x00,
        0x0b, 0x00, 0x00, 0x00, 0x04, 0x04, 0x00, 0x00, 0x94, 0x03, 0x00, 0x00,
        0x24, 0x03, 0x00, 0x00, 0xd0, 0x02, 0x00, 0x00, 0x88, 0x02, 0x00, 0x00,
        0x3c, 0x02, 0x00, 0x00, 0xf0, 0x01, 0x00, 0x00, 0x68, 0x01, 0x00, 0x00,
        0xd8, 0x00, 0x00, 0x00, 0x60, 0x00, 0x00, 0x00, 0x04, 0x00, 0x00, 0x00,
        0x3e, 0xfc, 0xff, 0xff, 0x00, 0x00, 0x00, 0x01, 0x14, 0x00, 0x00, 0x00,
        0x1c, 0x00, 0x00, 0x00, 0x1c, 0x00, 0x00, 0x00, 0x0b, 0x00, 0x00, 0x00,
        0x34, 0x00, 0x00, 0x00, 0x02, 0x00, 0x00, 0x00, 0xff, 0xff, 0xff, 0xff,
        0x02, 0x00, 0x00, 0x00, 0x28, 0xfc, 0xff, 0xff, 0x19, 0x00, 0x00, 0x00,
        0x53, 0x74, 0x61, 0x74, 0x65, 0x66, 0x75, 0x6c, 0x50, 0x61, 0x72, 0x74,
        0x69, 0x74, 0x69, 0x6f, 0x6e, 0x65, 0x64, 0x43, 0x61, 0x6c, 0x6c, 0x3a,
        0x30, 0x00, 0x00, 0x00, 0x02, 0x00, 0x00, 0x00, 0x01, 0x00, 0x00, 0x00,
        0x02, 0x00, 0x00, 0x00, 0x96, 0xfc, 0xff, 0xff, 0x00, 0x00, 0x00, 0x01,
        0x14, 0x00, 0x00, 0x00, 0x1c, 0x00, 0x00, 0x00, 0x1c, 0x00, 0x00, 0x00,
        0x0a, 0x00, 0x00, 0x00, 0x50, 0x00, 0x00, 0x00, 0x02, 0x00, 0x00, 0x00,
        0xff, 0xff, 0xff, 0xff, 0x02, 0x00, 0x00, 0x00, 0x80, 0xfc, 0xff, 0xff,
        0x34, 0x00, 0x00, 0x00, 0x73, 0x65, 0x71, 0x75, 0x65, 0x6e, 0x74, 0x69,
        0x61, 0x6c, 0x2f, 0x64, 0x65, 0x6e, 0x73, 0x65, 0x5f, 0x32, 0x2f, 0x4d,
        0x61, 0x74, 0x4d, 0x75, 0x6c, 0x3b, 0x73, 0x65, 0x71, 0x75, 0x65, 0x6e,
        0x74, 0x69, 0x61, 0x6c, 0x2f, 0x64, 0x65, 0x6e, 0x73, 0x65, 0x5f, 0x32,
        0x2f, 0x42, 0x69, 0x61, 0x73, 0x41, 0x64, 0x64, 0x00, 0x00, 0x00, 0x00,
        0x02, 0x00, 0x00, 0x00, 0x01, 0x00, 0x00, 0x00, 0x02, 0x00, 0x00, 0x00,
        0x0a, 0xfd, 0xff, 0xff, 0x00, 0x00, 0x00, 0x01, 0x14, 0x00, 0x00, 0x00,
        0x1c, 0x00, 0x00, 0x00, 0x1c, 0x00, 0x00, 0x00, 0x09, 0x00, 0x00, 0x00,
        0x68, 0x00, 0x00, 0x00, 0x02, 0x00, 0x00, 0x00, 0xff, 0xff, 0xff, 0xff,
        0x0a, 0x00, 0x00, 0x00, 0xf4, 0xfc, 0xff, 0xff, 0x4c, 0x00, 0x00, 0x00,
        0x73, 0x65, 0x71, 0x75, 0x65, 0x6e, 0x74, 0x69, 0x61, 0x6c, 0x2f, 0x64,
        0x65, 0x6e, 0x73, 0x65, 0x5f, 0x31, 0x2f, 0x4d, 0x61, 0x74, 0x4d, 0x75,
        0x6c, 0x3b, 0x73, 0x65, 0x71, 0x75, 0x65, 0x6e, 0x74, 0x69, 0x61, 0x6c,
        0x2f, 0x64, 0x65, 0x6e, 0x73, 0x65, 0x5f, 0x31, 0x2f, 0x52, 0x65, 0x6c,
        0x75, 0x3b, 0x73, 0x65, 0x71, 0x75, 0x65, 0x6e, 0x74, 0x69, 0x61, 0x6c,
        0x2f, 0x64, 0x65, 0x6e, 0x73, 0x65, 0x5f, 0x31, 0x2f, 0x42, 0x69, 0x61,
        0x73, 0x41, 0x64, 0x64, 0x00, 0x00, 0x00, 0x00, 0x02, 0x00, 0x00, 0x00,
        0x01, 0x00, 0x00, 0x00, 0x0a, 0x00, 0x00, 0x00, 0x96, 0xfd, 0xff, 0xff,
        0x00, 0x00, 0x00, 0x01, 0x14, 0x00, 0x00, 0x00, 0x1c, 0x00, 0x00, 0x00,
        0x1c, 0x00, 0x00, 0x00, 0x08, 0x00, 0x00, 0x00, 0x60, 0x00, 0x00, 0x00,
        0x02, 0x00, 0x00, 0x00, 0xff, 0xff, 0xff, 0xff, 0x14, 0x00, 0x00, 0x00,
        0x80, 0xfd, 0xff, 0xff, 0x46, 0x00, 0x00, 0x00, 0x73, 0x65, 0x71, 0x75,
        0x65, 0x6e, 0x74, 0x69, 0x61, 0x6c, 0x2f, 0x64, 0x65, 0x6e, 0x73, 0x65,
        0x2f, 0x4d, 0x61, 0x74, 0x4d, 0x75, 0x6c, 0x3b, 0x73, 0x65, 0x71, 0x75,
        0x65, 0x6e, 0x74, 0x69, 0x61, 0x6c, 0x2f, 0x64, 0x65, 0x6e, 0x73, 0x65,
        0x2f, 0x52, 0x65, 0x6c, 0x75, 0x3b, 0x73, 0x65, 0x71, 0x75, 0x65, 0x6e,
        0x74, 0x69, 0x61, 0x6c, 0x2f, 0x64, 0x65, 0x6e, 0x73, 0x65, 0x2f, 0x42,
        0x69, 0x61, 0x73, 0x41, 0x64, 0x64, 0x00, 0x00, 0x02, 0x00, 0x00, 0x00,
        0x01, 0x00, 0x00, 0x00, 0x14, 0x00, 0x00, 0x00, 0x86, 0xfe, 0xff, 0xff,
        0x00, 0x00, 0x00, 0x01, 0x10, 0x00, 0x00, 0x00, 0x10, 0x00, 0x00, 0x00,
        0x07, 0x00, 0x00, 0x00, 0x28, 0x00, 0x00, 0x00, 0xf4, 0xfd, 0xff, 0xff,
        0x19, 0x00, 0x00, 0x00, 0x73, 0x65, 0x71, 0x75, 0x65, 0x6e, 0x74, 0x69,
        0x61, 0x6c, 0x2f, 0x64, 0x65, 0x6e, 0x73, 0x65, 0x5f, 0x32, 0x2f, 0x4d,
        0x61, 0x74, 0x4d, 0x75, 0x6c, 0x00, 0x00, 0x00, 0x02, 0x00, 0x00, 0x00,
        0x02, 0x00, 0x00, 0x00, 0x0a, 0x00, 0x00, 0x00, 0xce, 0xfe, 0xff, 0xff,
        0x00, 0x00, 0x00, 0x01, 0x10, 0x00, 0x00, 0x00, 0x10, 0x00, 0x00, 0x00,
        0x06, 0x00, 0x00, 0x00, 0x28, 0x00, 0x00, 0x00, 0x3c, 0xfe, 0xff, 0xff,
        0x19, 0x00, 0x00, 0x00, 0x73, 0x65, 0x71, 0x75, 0x65, 0x6e, 0x74, 0x69,
        0x61, 0x6c, 0x2f, 0x64, 0x65, 0x6e, 0x73, 0x65, 0x5f, 0x31, 0x2f, 0x4d,
        0x61, 0x74, 0x4d, 0x75, 0x6c, 0x00, 0x00, 0x00, 0x02, 0x00, 0x00, 0x00,
        0x0a, 0x00, 0x00, 0x00, 0x14, 0x00, 0x00, 0x00, 0x16, 0xff, 0xff, 0xff,
        0x00, 0x00, 0x00, 0x01, 0x10, 0x00, 0x00, 0x00, 0x10, 0x00, 0x00, 0x00,
        0x05, 0x00, 0x00, 0x00, 0x24, 0x00, 0x00, 0x00, 0x84, 0xfe, 0xff, 0xff,
        0x17, 0x00, 0x00, 0x00, 0x73, 0x65, 0x71, 0x75, 0x65, 0x6e, 0x74, 0x69,
        0x61, 0x6c, 0x2f, 0x64, 0x65, 0x6e, 0x73, 0x65, 0x2f, 0x4d, 0x61, 0x74,
        0x4d, 0x75, 0x6c, 0x00, 0x02, 0x00, 0x00, 0x00, 0x14, 0x00, 0x00, 0x00,
        0x0d, 0x00, 0x00, 0x00, 0x5a, 0xff, 0xff, 0xff, 0x00, 0x00, 0x00, 0x01,
        0x10, 0x00, 0x00, 0x00, 0x10, 0x00, 0x00, 0x00, 0x04, 0x00, 0x00, 0x00,
        0x34, 0x00, 0x00, 0x00, 0xc8, 0xfe, 0xff, 0xff, 0x27, 0x00, 0x00, 0x00,
        0x73, 0x65, 0x71, 0x75, 0x65, 0x6e, 0x74, 0x69, 0x61, 0x6c, 0x2f, 0x64,
        0x65, 0x6e, 0x73, 0x65, 0x2f, 0x42, 0x69, 0x61, 0x73, 0x41, 0x64, 0x64,
        0x2f, 0x52, 0x65, 0x61, 0x64, 0x56, 0x61, 0x72, 0x69, 0x61, 0x62, 0x6c,
        0x65, 0x4f, 0x70, 0x00, 0x01, 0x00, 0x00, 0x00, 0x14, 0x00, 0x00, 0x00,
        0xaa, 0xff, 0xff, 0xff, 0x00, 0x00, 0x00, 0x01, 0x10, 0x00, 0x00, 0x00,
        0x10, 0x00, 0x00, 0x00, 0x03, 0x00, 0x00, 0x00, 0x38, 0x00, 0x00, 0x00,
        0x18, 0xff, 0xff, 0xff, 0x29, 0x00, 0x00, 0x00, 0x73, 0x65, 0x71, 0x75,
        0x65, 0x6e, 0x74, 0x69, 0x61, 0x6c, 0x2f, 0x64, 0x65, 0x6e, 0x73, 0x65,
        0x5f, 0x32, 0x2f, 0x42, 0x69, 0x61, 0x73, 0x41, 0x64, 0x64, 0x2f, 0x52,
        0x65, 0x61, 0x64, 0x56, 0x61, 0x72, 0x69, 0x61, 0x62, 0x6c, 0x65, 0x4f,
        0x70, 0x00, 0x00, 0x00, 0x01, 0x00, 0x00, 0x00, 0x02, 0x00, 0x00, 0x00,
        0x00, 0x00, 0x16, 0x00, 0x18, 0x00, 0x14, 0x00, 0x00, 0x00, 0x10, 0x00,
        0x0c, 0x00, 0x08, 0x00, 0x00, 0x00, 0x00, 0x00, 0x00, 0x00, 0x07, 0x00,
        0x16, 0x00, 0x00, 0x00, 0x00, 0x00, 0x00, 0x01, 0x10, 0x00, 0x00, 0x00,
        0x10, 0x00, 0x00, 0x00, 0x02, 0x00, 0x00, 0x00, 0x38, 0x00, 0x00, 0x00,
        0x84, 0xff, 0xff, 0xff, 0x29, 0x00, 0x00, 0x00, 0x73, 0x65, 0x71, 0x75,
        0x65, 0x6e, 0x74, 0x69, 0x61, 0x6c, 0x2f, 0x64, 0x65, 0x6e, 0x73, 0x65,
        0x5f, 0x31, 0x2f, 0x42, 0x69, 0x61, 0x73, 0x41, 0x64, 0x64, 0x2f, 0x52,
        0x65, 0x61, 0x64, 0x56, 0x61, 0x72, 0x69, 0x61, 0x62, 0x6c, 0x65, 0x4f,
        0x70, 0x00, 0x00, 0x00, 0x01, 0x00, 0x00, 0x00, 0x0a, 0x00, 0x00, 0x00,
        0x00, 0x00, 0x16, 0x00, 0x1c, 0x00, 0x18, 0x00, 0x00, 0x00, 0x14, 0x00,
        0x10, 0x00, 0x0c, 0x00, 0x00, 0x00, 0x00, 0x00, 0x08, 0x00, 0x07, 0x00,
        0x16, 0x00, 0x00, 0x00, 0x00, 0x00, 0x00, 0x01, 0x14, 0x00, 0x00, 0x00,
        0x20, 0x00, 0x00, 0x00, 0x20, 0x00, 0x00, 0x00, 0x01, 0x00, 0x00, 0x00,
        0x3c, 0x00, 0x00, 0x00, 0x02, 0x00, 0x00, 0x00, 0xff, 0xff, 0xff, 0xff,
        0x0d, 0x00, 0x00, 0x00, 0x04, 0x00, 0x04, 0x00, 0x04, 0x00, 0x00, 0x00,
        0x1d, 0x00, 0x00, 0x00, 0x73, 0x65, 0x72, 0x76, 0x69, 0x6e, 0x67, 0x5f,
        0x64, 0x65, 0x66, 0x61, 0x75, 0x6c, 0x74, 0x5f, 0x64, 0x65, 0x6e, 0x73,
        0x65, 0x5f, 0x69, 0x6e, 0x70, 0x75, 0x74, 0x3a, 0x30, 0x00, 0x00, 0x00,
        0x02, 0x00, 0x00, 0x00, 0x01, 0x00, 0x00, 0x00, 0x0d, 0x00, 0x00, 0x00,
        0x02, 0x00, 0x00, 0x00, 0x20, 0x00, 0x00, 0x00, 0x04, 0x00, 0x00, 0x00,
        0xf4, 0xff, 0xff, 0xff, 0x19, 0x00, 0x00, 0x00, 0x00, 0x00, 0x00, 0x19,
        0x0c, 0x00, 0x0c, 0x00, 0x0b, 0x00, 0x00, 0x00, 0x00, 0x00, 0x04, 0x00,
        0x0c, 0x00, 0x00, 0x00, 0x09, 0x00, 0x00, 0x00, 0x00, 0x00, 0x00, 0x09
};
unsigned int model_tflite_len = 4140;
